Ġ t
h e
Ġ a
Ġ s
Ġ w
n d
Ġt he
e d
Ġ b
Ġt o
Ġa nd
Ġ h
Ġ f
i n
Ġ T
Ġw a
r e
i t
o u
Ġ l
Ġ d
Ġ c
Ġ p
a y
Ġ m
e r
Ġwa s
o m
ĠT he
Ġ he
i s
a r
Ġ n
i m
o n
Ġs a
i d
l l
Ġh a
Ġ g
a t
Ġ S
in g
o t
e n
a n
l e
o r
i r
a m
e t
Ġ H
Ġ it
Ġt h
i g
ĠThe y
Ġ in
i l
Ġp l
ĠH e
Ġ "
o w
v er
r i
u t
Ġb e
Ġ u
Ġsa id
Ġpl ay
it h
Ġd ay
Ġw ith
p p
O n
Ġ o
Ġ y
o o
k ed
Ġ r
Ġhe r
c e
Ġ I
ĠS he
l d
ĠT im
Ġh is
Ġs t
k e
Ġ e
Ġb ig
n t
c k
Ġy ou
ver y
s t
v e
e nd
Ġ on
u n
Ġha pp
ri end
Ġf riend
a ll
il y
Ġ L
Ġthe y
Ġw e
Ġha d
Ġn ot
Ġl i
Ġu p
he r
Ġwa nt
Ġo f
a d
it t
s e
Ġ B
Ġd o
Ġhapp y
en t
Ġ very
Ġ M
e s
Ġth at
Ġsa w
On e
' s
ou ld
Ġm om
Ġf or
Ġs h
itt le
Ġl ittle
Ġs o
Ġs he
c h
im e
Ġn e
Ġn am
. "
Ġt ime
Ġ k
ou nd
Ġthe re
Ġnam ed
Ġs m
Ġb o
Ġwe re
ĠL ily
Ġwant ed
Ġb ut
ou t
T he
Ġfriend s
v ed
! "
h t
ĠT om
ir d
e l
Ġb ird
a l
Ġa n
a ke
Ġto o
om e
ĠI t
u g
id e
Ġw ent
Ġw h
Ġhe l
On ce
Ġ is
Ġa ll
Ġhel p
u e
Ġl oo
Ġl o
t er
Ġ A
Ġup on
r y
o re
i nd
Ġf un
g et
Ġto y
i ll
am e
Ġa s
Ġa t
r a
Ġ j
Ġd id
get her
Ġ re
u r
Ġs e
Ġto gether
a ck
Ġc at
l y
Ġt re
oo d
i c
t ed
Ġdo g
Ġc ould
Ġc an
Ġthe ir
ar d
e c
ar k
Ġg ir
Ġplay ed
Ġh im
Ġb all
? "
Ġgir l
w ay
Ġr o
Ġg o
he d
m y
Ġa re
Ġ out
Ġl e
Ġf r
a in
Ġk n
he n
Ġthe m
u m
' t
a x
Ġsa d
u l
Ġbo y
Ġtre e
ot her
Ġha ve
Ġm an
Ġc l
Ġlo ved
Ġloo ked
ou g
Ġf ound
Ġs p
Ġst ar
ĠS ue
on e
h ing
Ġs c
Ġb ack
ow n
ĠM ax
a re
Ġli ke
f ul
s ide
Ġm e
Ġbe c
Ġp ark
ig ht
on g
Ġc ar
o p
el t
Ġ One
Ġli ked
Ġw ould
Ġm ake
r ound
Ġl a
Ġf a
Ġf elt
Y ou
Ġ W
e ll
Ġse e
ĠB ut
om et
Ġas ked
a g
Ġne w
Ġn o
i ce
ĠS am
ou se
Ġstar ted
ar ed
Ġc ame
ĠB en
Ġa l
Ġ other
oug ht
il ed
Ġs omet
Ġa g
Ġg ood
Ġsm all
s s
Ġb r
Ġsm iled
Ġs ay
ri ed
ad e
ing s
o b
p ot
Ġw or
Ġf ind
Ġe x
i a
Ġa way
t y
Ġp ut
Ġwh at
Ġsomet hing
Ġc o
Ġfr om
Ġm ade
Ġth ought
en ed
Ġh ome
Ġplay ing
oo k
Ġe very
Ġwa l
Ġm u
u c
a ch
ar n
ĠS pot
Ġr an
i le
Ġ F
i e
Ġ J
a ve
Ġag ain
Ġs ome
Ġla ug
d d
Ġh ouse
Ġd own
Ġf l
k ing
Ġtoo k
Ġsc ared
Ġp r
n y
u re
Ġtoy s
Ġle arn
Ġ You
i f
Ġw ill
Ġbo x
i ck
re t
a b
e p
Ġm y
Ġa round
Ġth ings
Ġyou r
ou d
Ġb l
u ck
Ġw hen
is h
Ġli ved
Ġf e
Ġthe n
Ġs un
a s
Ġs w
, "
Ġc h
u s
pp ed
Ġa b
ĠM ia
an k
Ġg et
uc y
T im
um p
T h
Ġl ot
is t
ot h
Ġt ried
a p
Ġkn ow
Ġsay s
Ġg ot
it ed
Ġwh o
Ġkn e
u st
Ġman y
nd er
Ġin t
Ġab out
L ily
Ġp ret
Ġd ec
Ġan y
Ġr ed
Ġ D
i ve
Ġkne w
a ce
ou s
Ġm ore
is e
Ġc are
all y
Ġp ic
a u
q u
Ġh ug
ĠL ucy
Ġlearn ed
Ġp o
Ġwa ter
f ter
Ġ v
Ġbec ame
Ġbe st
au se
Ġo p
Ġg re
Ġex c
ur p
way s
â Ģ
Ġout side
Ġlaug hed
Ġloo k
Ġal ways
Ġdec id
Ġsh ow
Ġu n
an t
ĠB ob
Ġro om
f e
Ġdecid ed
Ġh o
Ġbec ause
ĠS o
Ġint o
Ġe at
it e
Ġj ump
ĠA nd
Ġp e
Ġb oth
er s
ĠM om
Ġd ad
The y
u dd
Ġ ke
Ġon e
n n
Ġth is
Ġexc ited
Ġfa st
Ġn ice
Ġ E
Ġfe el
T om
Y es
Ġr un
Ġl ong
Ġto ld
Ġs k
Ġa m
urp r
ou r
Ġin side
u ll
Ġt r
Ġs urpr
Ġm o
in k
Ġpret ty
in y
Ġs or
W h
Ġt ake
o g
Ġs l
Ġe ach
Ġg ave
Ġmu ch
Ġg ra
le w
nn a
Ġro ck
Ġh ow
Ġst r
ar a
im al
Ġan imal
g ed
Ġne ed
Ġth an
B ut
v en
et ter
Ġto w
Ġ or
Ġ C
Ġu nder
es s
Ġo ld
Ġsor ry
g e
is ed
r o
ur t
Ġc le
Ġf ish
Ġwal ked
Ġcl o
a nd
Ġbe ar
f t
a se
a st
Ġha nd
ur n
ĠW e
Ġk ind
ĠH is
Ġt e
he re
Ġhapp ened
Ġj ust
Ġfl ow
Ġf ood
Ġl ist
Ġdid n
Ġanimal s
Ġh ig
p l
Ġne ar
Ġwa t
Ġ ide
Ġt ry
c hed
Ġsk y
in e
Ġs n
v ing
Ġf i
r om
Ġu s
Ġide a
Ġb etter
ĠA my
Ġb ug
Ġhe ard
g ry
Ġit s
Ġt w
Ġl et
p ec
at e
ab le
f f
Ġ en
Ġcare ful
Ġsh are
e x
Ġ if
Th ank
M om
Ġf ly
Ġst or
i al
Ġf lew
m ore
Ġany more
ĠT h
Ġsp ec
Ġspec ial
i on
Ġc om
Ġlot s
Ġne ver
Ġb y
l f
re am
Ġd an
Ġb u
Ġf o
Ġw ind
Ġd on
Ġt al
Ġcle an
or t
Ġg r
Ġlo ve
r m
b er
Ġe nd
Ċ Ċ
ĠThe n
op le
Ġe ven
Ġm ag
Ġh ard
Ġsh iny
udd en
Ġf ore
Ġo ver
Ġc ake
a k
Ġb ook
Ġco l
Ġt urn
Ġf am
Ġb ad
Ġsa fe
Ġa fter
ad y
ĠA nna
udden ly
Ġpe ople
Ġpr oud
ĠE very
Ġsurpr ised
pec ted
L et
Ġhig h
Ġc u
Ġh urt
Ġc ome
im b
ard en
Ġdo or
Ġg arden
b b
Ġg round
Ġop ened
Ġpic ked
Ġl oud
Ġcl imb
ex pected
Ġun expected
Ġg l
Ġc he
il d
Ġ im
A s
Ġg ive
Ġwa y
a il
' m
Ġthan ked
Ġcol or
Ġbl ue
Ġst ill
Ġe ver
Ġhug ged
ĠF rom
Ġc all
Ġf ar
i p
ĠH er
ĠS ara
ĠW hen
N o
Ġof f
Ġmag ic
i z
oug h
ag e
um my
Ġ K
Ġjump ed
Ġsh ould
Ġfam ily
Ġp ar
oo l
Ġk id
Ġsm ile
he s
u ff
Ġpl ace
k ay
Ġwal k
Ġn ow
c t
ĠI n
Ġgre at
e m
t ure
Ġ qu
le s
Ġstr ong
Ġst ay
Ġu nt
Ġst o
a ut
Ġfore st
an e
Ġb ra
itt y
Ġ P
Ġfr og
Ġbr o
Ġunt il
o on
Ġbe aut
d y
Ġs qu
Ġst ick
x t
Ġne xt
Ġbo at
le ase
n ing
Ġhapp ily
Ġlist en
a king
Ġkid s
Ġt ra
i es
i ful
Ġbeaut iful
Ġa pp
t h
Ġhelp ed
Ġd ra
Ġshow ed
Ġclo s
b e
Ġim p
Ġstor y
un ny
o y
Ġwh ile
Ġtow n
re l
p t
Ġr ain
re ss
Ġpic ture
Ġbe ing
Ġre m
Ġevery one
I t
ar y
re e
Ġm or
Ġha t
Ġcall ed
Ġm et
Ġsto pped
Ġa d
Ġg ame
N ow
H e
C an
Ġan gry
g er
uff y
Ġop en
Ġw o
Ġtr uck
Ġke ep
Ġso ft
W hen
Ġc ry
Ġy ummy
Ġlo st
Ġb ed
ĠL et
ĠS ally
Ġwa rm
b y
v ent
Ġbra ve
Ġm ouse
ĠW h
Ġat e
ĠK itty
is hed
Ġd e
f ore
Ġdo ll
s o
Ġcould n
Ġwat ch
Ġle ave
Ġal so
dd ed
Ġf ell
Ġgre en
Ġfa ce
Ġtw o
g an
is s
Ġflow ers
b it
Wh at
Ġ R
b le
Ġno ise
ab bit
ir st
ow l
Ġw here
a z
o ck
Ġso on
se lf
Ġsl ide
Ġr abbit
Ġho le
l uffy
Ġbe fore
ir rel
Ġp us
ir ed
Ġsa t
ill y
Ġhe ar
Ġu se
âĢ Ŀ
H i
Ġp a
Ġke pt
âĢ ľ
Th at
Ġsqu irrel
e ar
The n
m a
Ġno dded
Ġex pl
Ġst ore
Ġc ook
Ġhand s
L ook
Ġbird s
Ġp ain
Ġgo ing
Ġfun ny
Ġha ving
d ay
Ġs ing
ay be
u ch
Ġe y
a ug
Ġcat ch
aug ht
ĠC an
ĠF luffy
u it
Ġy ell
Ġth ink
le ep
Ġc ra
Ġf in
B en
Ġb re
Ġfi x
Ġt ired
Ġb unny
Ġus ed
Ġloo king
Ġb us
an ge
a ir
Ġwor k
Ġw r
Ġ our
Ġp ull
W e
Ġth r
t hing
Ġ Now
Ġwa it
Ġk it
Ġs ound
t ing
Ġj o
Ġha s
Ġ G
Ġme an
Ġpo nd
em ber
Ġbe h
Ġd r
Ġsun ny
l ed
Ġother s
Ġas k
n g
c hen
Ġkit chen
Ġtal k
Ġfl o
Ġd if
Ġp ie
re w
ĠJ o
Ġhe ad
Ġre al
Ġf irst
Ġt ri
Ġmom my
Ġey es
ell o
Ġimp ort
H ello
Ġfa v
at h
j oy
Ġ z
Ġrem ember
Ġr ight
Ġflow er
Ġc on
Ġm ess
Ġpar ty
Ġco ld
ĠD o
Ġv o
Ġsw e
i ous
Ġsa nd
Ġ âĢľ
a c
or n
Ġr ace
Ġcu ri
im es
Ġimport ant
Ġd uck
Ġmor al
Ġsh ared
z y
ou nt
ĠJ ack
Ġ ice
Ġo kay
Ġad vent
Ġwor ked
ll ow
A t
Ġen joy
Ġd ress
Ġbr ight
Ġm aking
Ġcuri ous
Ġ own
Ġt all
Ġd ir
Ġh op
re ed
Ġh id
Ġfav or
Ġ ri
h n
Ġs leep
Ġd is
W ow
Ġfavor ite
Ġth ing
Ġbe gan
Ġm on
Ġb ag
Ġh ill
D on
Ġcl a
Ġdra w
Ġre st
Ġhe re
Ġy ard
Ġt ell
ĠF in
st er
Ġwat ched
q ue
Ġfo llow
Ġmo ve
Ġbe l
ec t
Ġc ut
Ġn ight
Ġag reed
Ġp ick
c o
Ġbl ock
Ġh un
ap er
ll y
Ġst op
Ġbeh ind
ĠTh is
Ġsurpr ise
i ed
Ġsh o
Ġh ot
A fter
Ġt able
Ġgra ss
Ġwor ry
Ġd ark
Ġtre es
Ġvo ice
Ġwal king
fe re
Ġflo or
Ġfar m
Ġli on
Ġto p
Ġdif fere
Ġp lease
Ġr u
Ġs ong
Ġbut ter
Ġt ail
Ġswe et
M ax
Ġsh out
Ġcolor s
Ġre ad
ĠD ad
Ġl ady
Ġfor g
is y
Ġleave s
Ġclos er
ig n
Ġcar s
Ġturn ed
Ġneed ed
Ġt ast
Wh y
ar ing
Ġw ood
Ġc ried
Ġdiffere nt
Ġlaug h
Ġd el
Ġpie ce
âĢ Ļ
er ed
ĠM r
Ġro ll
Ġadvent ure
Ġfi re
Ġdo es
i ke
Ġc r
Ġhun gry
Ġha ir
ĠS uddenly
Ġp aper
Ġfeel ing
Ġyell ow
Ġf ull
b o
Ġpr in
S ue
Ġto uch
ĠA s
A nna
S am
Ġw et
Ġfriend ly
Ġp er
o om
k en
c ked
a ched
Ġsw ing
Ġfr uit
i ent
Ġbro ken
Ġre ady
by e
pp y
Ġpr om
ĠTh at
Ġan other
Ġl ight
Ġpret end
Ġdan ce
at er
Ġclimb ed
w here
Ġlist ened
ĠBob o
Ġdan c
Ġrun ning
Ġon ly
Ġpl an
Ġg one
Ġsw im
bb ed
S uddenly
s h
Ġtra in
il a
nd ma
S ara
ĠJ ane
Ġclo se
a v
S he
Ġsm ell
S o
ab y
Ġam az
Ġho ld
Ġblock s
Ġwo nder
ĠTim my
Ġre pl
ĠA ll
Ġbutter f
Ġse es
Ġre ached
Ġwa ll
Ġp u
one y
r ed
Ġsl ow
Ġhelp ing
Ġd ri
Ġc ream
Ġc ool
Ġgl ad
a f
Ġa nt
Ġl ess
Ġbe en
Ġgood bye
Ġa c
Ġf ight
at her
M ia
Ġpus hed
ic ed
Ġfa ir
Ġmu st
Ġh ide
Ġmom ent
Ġwind ow
Ġ O
Ġs it
Ġball oon
Ġsn ow
Ġch ild
Ġexpl ore
ĠEvery one
Ġa r
Ġw ished
Ġb aby
Ġd one
Ġwa g
Ġst e
Ġbu y
Ġst uck
Ġper f
Ġth ank
Ġm ight
ic y
Ġnam e
iz ed
Ġtry ing
Ġb it
Ġcom ing
Ġb ar
Ġqu ick
Ġf all
Ġapp le
as h
Ġsc ary
Ġlook s
Ġbu ild
Ġdo ing
Ġw in
Ġunder st
a isy
Ġd in
Ġd ream
Ġdir ty
Ġhe ld
am es
Ġbook s
Ġm ar
I n
Ġbutterf ly
Ġle ft
Ġshout ed
Ġc ount
Ġrepl ied
av y
Ġre ach
Ġt iny
Ġthr ough
ot t
Ġd ro
Ġwh y
Ġa ir
Ġbr an
Ġla nd
ke y
Ġth ree
Ġpull ed
Ġsp l
Ġgr ow
Ġtre at
Ġbr other
Ġw ise
Ġwood s
Ġs ure
' re
Ġch air
i x
Ġm at
in s
Ġse en
Ġp ink
Ġcla pped
Ġpl ant
el y
Ġ owl
Ġcu p
ie ld
Ġsomet imes
and y
Ġf ill
Ġcl oud
as k
Ġsw am
out h
Ġj ob
Ġcolor ful
Ġremember ed
Ġbig ger
Ġne st
Ġm outh
p e
O kay
Ġless on
Ġjo in
Ġc re
p h
ĠThe re
ou p
ro om
ar t
Ġwa ved
udd y
Ġgra bbed
Ġstay ed
O h
Ġpain t
Th is
Ġcl ot
Ġcon t
Ġclot hes
Ġ ve
ow er
ĠA fter
Ġwa ited
Ġquick ly
c le
Ġwor d
Ġbro ke
uck y
Ġg ames
Ġc ast
Ġb lew
Ġg ent
ĠMom my
Ġenjoy ed
Ġnot iced
J o
ri es
at ion
Ġs et
Ġlike s
Ġpicture s
t on
d e
Ġse a
Ġhe avy
Ġmu s
Ġal one
Ġg if
as ure
Ġany thing
Ġsp ot
Ġm iss
Ġho pped
Ġwor ld
Ġturn s
or m
Ġy ear
d er
Ġb ott
Ġp at
Ġp ot
Ġp en
l c
H er
Ġm ix
Ġa rm
Ġb ike
Ġt ight
Ġevery where
Ġw on
L ucy
Ġtow er
Ġth rew
Ġhim self
Ġfollow ed
ĠB uddy
Ġr ide
m an
le ss
Ġj u
Ġj e
am p
B ob
ap e
Ġcom p
Ġke y
r ow
" .
Ġwh ite
ct or
Ġwr ong
ĠD aisy
Ġmake s
ĠWh at
Ġbre ak
Ġbl ack
are nt
e e
n er
S pot
D o
Ġde ep
th y
Ġmus ic
Ġpo l
Ġdel ic
ce ss
u ed
Ġforg ot
Ġbe e
Ġp arent
Ġcast le
ve s
o lly
Ġe m
i et
Ġwe ar
Ġh it
is ter
ou n
Ġqu iet
Ġr ound
an ce
Ġst u
Ġdanc ed
Ġv is
ull y
Ġwant s
Ġle af
Ġmon ster
Ġn ap
ĠJo hn
Ġunderst and
an g
Ġb owl
o s
r ot
re n
Ġb or
Ġtal ked
itt en
Ġd ry
Ġfast er
Ġcook ies
Ġbr ought
f ully
Ġle g
ro ss
Ġm um
z z
Ġs ide
t s
F rom
Ġs ign
ĠIn side
Ġsm art
c y
Ġrock s
Ġsome one
H is
Ġpo in
Ġse c
Ġsh aring
Ġfo x
Ġwe ll
Ġre s
Ġre l
Ġhapp en
Ġbut ton
Ġbran ch
ĠL ila
Ġre ally
Ġfin ished
en ce
ard s
Ġdin ner
Ġs ister
Ġfly ing
ed dy
Ġcont in
Ġwor ried
Ġe le
ĠT o
Ġvis it
ĠM aybe
Ġbe ach
Ġ que
Ġsec ret
Ġe l
ĠSara h
Ġk ing
Jo hn
g y
Ġto day
Ġperf ect
Ġri ver
Ġevery thing
Ġs illy
Ġsh in
ĠJo e
Ġdan ger
i pp
Ġchild ren
Ġg u
ĠSo on
Ġf ield
Ġfill ed
Ġf ur
Ġel se
Ġsmile s
Ġwe lc
ĠA t
Ġw ish
ĠE m
Wh ile
Ġsa ng
Ġg i
z e
Ġp udd
Ġsn ack
Ġeat ing
Ġreal ized
Ġpiece s
Ġprom ised
or d
Ġsp r
Ġp ig
Ġf ree
Ġcontin ued
Ġb ite
e ad
Ġparent s
Ġcare fully
at ed
itt ing
Ġe ar
J ust
Ġj ar
M aybe
Ġc ow
A my
Ġbl ank
Ġdra g
st ead
Ġor ange
Ġmu d
Ġcry ing
Ġblank et
Ġen ough
Ġroll ed
ck et
Ġs oup
Ġsa il
Ġp urp
im i
Ġy es
a le
Ġdr ink
Ġsn ake
se s
Ġb oun
Ġp et
Ġcra b
Ġlaug hing
Ġthr ow
Ġfair y
Ġword s
Ġamaz ing
Ġb ath
i ch
Ġpurp le
Ġ Z
Ġwith out
i re
Ġbott le
ĠB illy
Ġgif t
Ġgra ndma
F in
us ed
on s
Ġp ast
Ġm oney
i ver
f ort
Ġm ail
ĠG ra
Ġbar ked
Ġwag ged
Ġat t
ch ool
Ġmon key
Ġdo ctor
un ch
Ġbr own
Ġmo ved
is es
Ġask s
Ġget ting
Ġclos ed
Ġw he
Ġwelc ome
Ġs u
Ġc andy
Ġs chool
Ġmor ning
Ġown er
g g
Ġl on
Ġm other
Ġhig her
Ġs itting
Ġtre asure
. âĢĿ
Ġsm o
! âĢĿ
Ġdanger ous
Ġlon ely
ĠC h
Ġli ving
Ġapp les
us h
Ġsh op
as ed
Ġstr ange
ve l
Ġshin ing
Ġro ad
e re
ĠTom my
Ġcre at
un a
Ġpa w
Ġr a
e y
Ġsho es
Ġp re
Ġ -
i ble
Ġst re
Ġtal king
al thy
Ġc aught
Ġe gg
o l
Ġpa ss
m e
Ġl ake
Ġrun s
Ġb uck
Ġl etter
Ġw ings
Ġche e
f ish
Ġm ad
Ġf an
ask et
Ġb asket
a ss
Ġdrag on
a pp
Mom my
s et
ck s
Ġst one
Ġthink s
Ġst and
Ġdelic ious
Ġno se
Ġpudd le
Ġto m
ĠB l
ĠM imi
Ġbel ie
Ġfarm er
Ġsa me
Ġyear s
bo ard
Ġt eddy
Ġb at
is k
it ch
Ġm ine
Ġse ar
Ġco at
c hes
ig h
Ġday s
Ġbr ing
Ġgent le
Ġf it
Ġstar t
Ġfin ally
Ġwh ist
Ġcr ay
ig g
Ġsc ream
Ġk ite
Ġp ill
ph ant
ar m
Ġv ill
Ġch o
Ġsing ing
ell a
s w
in ed
Ġtast y
Ġp h
Ġb en
Ġtr ou
Ġshe ll
Ġher self
Ġhop ed
Ġan sw
Ġw ore
Ġsw ings
s y
Ġh or
Ġbel ong
P lease
Ġpus h
Ġbus h
isk ers
Ġcar rot
Ġar ri
aught y
Ġte ach
b ow
ra ct
Ġn aughty
Ġele phant
Ġdro pped
Ġsh ap
Ġco ll
i er
s c
Ġte ac
e my
Ġwo ke
b all
Ġp ile
Ġhid ing
Ġc our
is a
er ry
Ġto uc
Ġm in
Ġpu ppy
' ll
Ġsee m
ll ie
Ġtw ins
am a
Ġl unch
Ġb ow
Ġsa ck
Ġp ers
Ġcour se
Ġche ered
Ġshap es
ĠJ en
Ġgre w
f used
Ġro pe
Ġvill age
ir th
irth day
Ġju ice
i pped
Ġrain bow
Ġsp in
O K
Ġsh ook
J ack
Ġsp oon
Ġben ch
Ġstre et
Ġf ence
Ġcut e
ĠF red
Ġro b
Ġn ut
Ġchee se
Ġpr ob
Ġtouc hed
id ge
co l
Ġj oy
ĠWh iskers
Ġarri ved
Ġse ed
Ġwa r
Ġteac her
Ġc orn
G ood
Ġfore ver
Ġab le
Ġbe ll
Ġfe w
Ġcar ry
Ġmo st
Ġpl ane
ĠBl ue
le m
Ġe as
Ġsound s
ll a
Ġd es
Ġsp o
Ġprob lem
Ġb irthday
Ġin c
Ġp ower
um b
b r
Ċ Ġ
Ġbug s
il k
Ġwonder ful
Ġdoll s
Ġbus y
at o
ir p
e b
Ġw ra
Ġprom ise
ĠTh ank
Ġfeel s
i an
ĠEm ma
et er
Ġbre ad
Ġne ck
Fin ally
Ġm ilk
Ġrob ot
Ġre c
Ġsh y
ount ain
Ġk iss
ir t
Ġhear t
Ġb and
Ġc ave
Ġpo cket
u b
Ġhelp ful
g ly
Ġslow ly
Ġbelie ve
Ġsh ake
ump y
e ared
Ġpat ient
Ġp op
Ġo b
ar p
Ġli ve
Ġstor m
Ġhold ing
Ġu gly
Ġtow ards
Ġup set
Ġt urt
Ġsh r
ad ow
Ġco ver
Ġk itten
o st
ĠR emy
Ġsh arp
Ġdis app
Ġstor ies
Ġs uc
Ġh oney
o ve
ĠB ella
re ad
Ġno ises
ĠL e
Ġc ir
Ġball s
Ġsp ark
Ġgr ay
Ġd ist
Ġdir t
og gy
Ġl ate
Ġdri ver
Ġse at
Ġbuck et
Ġme et
Ġyou ng
Ġamaz ed
Ġturt le
al m
Ġsp id
Ġtreat s
Ġmagic al
u nt
at or
Ġgl ow
Ġsee k
Ġz oom
Ġle m
Ġsand w
fort able
um ber
Ġtri p
Ġm ist
our n
Ġspl as
Ġm ark
Ġj ourn
Ġfo ld
Ġm ach
Ġpu zz
Ġpar t
l ing
Ġhor se
Ġor gan
Ġw ild
Ġprin cess
pp ing
oo se
Ġcook ie
S ure
en s
Ġhug s
ĠM ark
Ġt aking
un g
Ġwhe el
ep end
Ġcl oth
ĠL isa
Ġs ug
Ġin stead
Ġbu bb
Ġstr ing
Ġn et
Ġdro ve
il ing
Ġru de
Ġhug e
ĠJ im
Ġco in
Ġstar s
Ġfight ing
B e
Ġsp icy
Ġl ucky
O f
Ġcra w
He y
Ġb one
Ġin v
ĠGra ndma
or s
n ot
Ġc a
pp er
Ġfor get
u p
Ġd i
a ur
Ġsa l
ĠFin ally
Ġcan not
Ġwhist le
Ġc ard
Ġs ick
Ġp ath
Ġc ou
Ġspid er
Ġw ide
L ila
Ġfo ot
Ġsnow man
Ġli fe
Ġsong s
Ġpill ow
iz e
ul ar
ĠJ ust
L ater
e st
ĠA nn
er t
Ġfix ed
Ġgi ant
op h
ri ll
Ġno d
Ġbo ss
Ġcom es
Ġla st
Ġjo ke
Ġmo on
Ġtast e
d en
Ġmach ine
Ġgr umpy
Ġwa ve
Ġth in
Ġdri ve
Ġcar t
Ġas h
Ġs er
Ġgra b
Ġpe ace
l ower
Ġdad dy
Ġ On
ĠLe o
er y
Ġs el
Ġshe lf
Ġhid den
ere st
Ġs uddenly
Ġwas n
Ġwr ite
Ġland ed
Ġcon fused
Ġr ing
Ġch ange
Ġwor m
Ġint erest
Ġch ased
oo p
Ġfruit s
Ġs our
it y
Ġmy ster
Ġb ark
Ġr ad
Ġsmo oth
ĠC ome
Ġadventure s
Ġv al
Ġste pped
Ġf le
op e
Ġo ven
Ġtake s
Ġmiss ed
Ġsel fish
k in
Ġshe ep
Ġmess y
T o
Ġac ross
Ġ ent
Ġex p
t o
Ġc e
Ġl ater
ell y
Ġ N
if e
Ġstick s
Ġt ie
S t
e ver
ĠL una
Ġst ep
Ġb ought
Ġd rew
Ġte a
pec t
Ġb an
irp y
bo x
? âĢĿ
Ġwas h
Ġl ay
Ġp our
Ġbe ak
o se
Ġj og
Ġgr ate
Ġduck s
Ġsp e
Ġleg s
ug g
Ġf il
ĠB u
Ġem p
m er
Ġhop e
Ġemp ty
Ġsl id
Ġfe ather
Ġsleep y
Ġdr um
am ed
ar s
et h
Ġz oo
Ġp an
Ġph one
Ġgrate ful
Ġf ing
ion s
Ġlem on
le t
ĠC at
Ġcle ver
ĠM olly
Ġsmell y
Ġim ag
Ġspl ash
Ġinterest ing
ĠJ ill
Ġsa ve
Ġch ick
Ġc alm
Ġm ed
Ġwatch ing
S oon
iz zy
iz z
Ġpl ate
Ġ ign
y ard
Ġcloud s
Ġban an
Ġl ine
Ġface s
Ġb a
Ġa ct
Ġli ft
Ġth ough
Ġwo lf
Ġback yard
w el
Ġseem ed
Ġdog s
Ġspr ay
C ome
Ġpr ot
Ġwho le
Ġm ot
Ġfan cy
ĠDad dy
Ġque st
Ġarm s
Ġpuzz le
Ġhe althy
Ġsu pp
w ard
Ġfin ish
er ly
Ġal ong
ll o
Ġrock et
Ġexpl ain
d ge
Ġeas y
Ġje wel
on t
Ġp ract
Ġj elly
ĠCh irpy
Ġt id
Ġf ake
Ġcray ons
Ġwonder ed
Ġm aybe
Ġsc ar
Ġsh ip
Ġnot hing
one st
Ġem b
ig er
Ġp ool
Ġlong er
Ġany one
ĠB e
ĠJ erry
u ally
Ġfr ont
Ġwor king
Ġgive s
ir r
Ġp ack
Ġs uch
ĠB unny
o cked
m ent
Ġboss y
ĠD oggy
Ġtrou ble
Ġsmell ed
Ġsa ved
Ġp in
ra ss
Ġne igh
ar rass
it ing
Ġh onest
Ġa v
ar ge
Ġemb arrass
Ġv an
Ġforg ive
Ġtid y
Ġwe ak
ur se
Ġput s
un k
Ġk ick
Ġsh irt
ĠW ith
Ġm ind
ĠO llie
Ġneigh b
Ġplant s
Ġso l
ĠMom o
Ġgent ly
Ġco zy
or row
m ing
Ġexpl or
s p
Ġmist ake
Ġy og
o c
oom y
Ġpoin ted
Ġl ad
Ġa f
Ġst ood
or k
Ġon to
Ġwait ing
Ġjump ing
Ġprin ce
Ġc ross
Ġlo ck
Ġche er
Ġque en
ĠWh y
ĠM ary
Ġw ing
on es
w e
Ġl arge
Ġlove ly
ul t
Ġs ur
Ġre t
A nd
Ġde er
Ġche w
Ġcou ch
Ġb al
aught er
Ġst ret
ĠThe ir
er a
Ġplace s
ĠM y
Ġlad der
oo f
Ġret urn
ra id
Ġant s
Ġd ish
Ġaf raid
Ġclean ed
Ġtom orrow
Ġbuild ing
Ġsandw ich
Ġpers on
S ally
n ed
Ġpretend ed
Ġboun ce
Ġw ip
ge st
Ġmat ch
Ġri ch
u ce
Ġp izz
Ġg ather
Ġsear ch
Ġbor ing
om an
ĠS omet
Ġte eth
Ġh um
K itty
M y
ac ed
Ġd aughter
Ġw oman
Ġscar f
Ġgo es
ĠTo gether
Ġla w
Ġst ra
Ġswim ming
Ġfur ry
Ġsplas hed
Ġp ri
Ġlove s
Ġtr ue
Ġscream ed
Ġla zy
Ġg en
Ġansw er
Ġe ag
Ġn umber
Ġash amed
Ġpizz a
a w
Ġapp eared
Ġfe ar
Ġnear by
Ġpower ful
Ġfl ag
ĠS t
Ġha ng
v ous
Ġcl own
e k
Ġch ase
Ġmot or
Ġwa nd
ĠT V
Ġru b
Ġsuc cess
Ġcho col
ĠI f
Ġcreat ive
Ġtr ust
Ġwe aring
Ġno isy
Ġmat ter
p a
Ġd ig
Ġhe llo
Ġn er
Ġtoo l
Ġsa f
ĠB ird
ad o
Ġner vous
el p
Ġte st
Ġsm iling
Ġso ld
ic ked
o ppy
os aur
Ġcir cle
m b
Ġm ap
Ġdr ank
Ġcla ss
Ġtri es
Ġchocol ate
ĠP lease
Ġimp ress
Ġkne e
Ġgen er
Ġdin osaur
Ġpol ite
Ġm irr
ĠBob by
ĠT iny
Ġballoon s
Ġgo ld
Ġr are
Ġprot ect
Ġc and
St op
Ġcar ried
ĠG o
ens ive
Ġa p
Ġsh adow
Ġmirr or
ĠD on
Ġba ld
Ġg un
in a
Ġexp ensive
Ġre g
if f
Ġmyster ious
ĠS p
Ġp ump
Ġnot e
Ġher o
Ġmar ch
Ġh ar
ar l
Ġ icy
Ġres pect
Ġwe ird
Ġsn ee
Ġc ri
Ġg ate
Ġso ap
ra g
ut e
iss ors
Ġthe se
Ġpo or
Ġtow el
Ġwh ale
Ġfe et
Ġt ape
Ġd izzy
itt er
Ġgener ous
nd pa
Ġpre s
ĠBen ny
Ġdis co
n ic
H elp
vent ually
Ġpic nic
Ġle ad
Ġm ic
Ġs que
Ġembarrass ed
Ġjourn ey
Ġsug ar
is p
sc ape
Ġbo ot
Ġpeace ful
Ġt ent
Ġf at
ĠB ear
Ġsc issors
Ġtast ed
Ġyell ed
Tom my
Ġt ick
Ġm el
Ġbr ush
Ġdanc ing
n ess
Ġgl ue
Ġh ur
Ġcl ap
Ġr ough
Ġbr idge
ot e
Ġdec or
Ġclos et
Ġcr own
Ġst ir
u al
im p
Ġprin t
ĠSomet imes
ow ed
air s
ĠH ow
um e
Ġc ap
Ġl amp
Ġv ase
Ġsc are
le br
Ġrel ie
l ves
an y
Ġe ld
Ġte le
Ġce lebr
Ġg igg
Ġwh isp
Ġlo g
Ġsc o
Ġbl ow
Ġpain ted
ĠD ucky
Ġp ay
er ries
Ġw is
Ġb erries
Ġmix ed
Ġsp read
Ġwould n
Ġc age
Ġb ake
r ob
get able
Ġm ountain
Ġad m
Ġdraw ing
Ġbec ome
Ġfam ous
Ġkn ocked
Ġbe an
Ġn orm
Ġve getable
as p
Ġk icked
ust r
Ġsh ark
s er
Ġinc red
Ġlo se
Ġnorm al
Ġwra p
c ed
Ġgr oup
Ġth ick
Ġ 3
Ġf ine
Ġgl ass
Ġign or
Ġclo ck
Ġte am
Ġeld erly
Ġcle ar
Ġcorn er
Ġfr ustr
Ġmight y
rob e
Ġc one
Ġincred ible
ĠB r
ig hed
D ad
Ġmom s
Ġbal ance
Ġso ck
Ġsp ace
Ġj am
rag ile
Ġfr ight
Ġorgan ized
Ġbran ches
Ġro ar
p ort
Ġsw ord
ĠM ama
al ous
Ġgu ess
Ġf ool
Ġse ll
Ġfe ed
ĠS ome
Ġwh ich
Ġh orn
Ġpres ent
Ġje alous
Ġy arn
on y
Ġf ragile
Ġb urn
Ġunderst ood
Ġm is
Ġstu bb
Ġt er
Ġfrustr ated
W here
r ay
Ġho se
c ient
Ġsp ent
Ġsho e
Ġt aught
Ġstubb orn
Ġtw ist
Ġcreat ure
Ġche st
Ġspo iled
Ġrelie ved
Ġan cient
Ġwa ke
i que
Ġfi er
Ġpr ay
Ġfier ce
Ġegg s
Ġc ab
Ġter ri
Ġb arn
Ġpump kin
Ġcom fortable
Ġor d
y m
Ġfright ened
or ry
Ġto ug
Ġun ique
Ġme asure
Ġgo at
Ġwag on
Ġun us
Ġbre ath
Ġfool ish
Ġuse ful
Ġexplor ing
d le
Ġstra w
Ġunus ual
Ġd ug
Ġcl ay
Ġdisco ver
Ġtom ato
ĠP e
Ġde ad
Ġfind ing
Ġpol ice
Ġwr ote
Ġcl um
Ġex am
l ace
Ġwa ves
Ġsqu are
Ġhear s
Ġcab in
Ġtell s
Ġneck lace
Ġd ull
Ġclum sy
Ġtoug h
Ġbubb les
Ġno sy
k n
Ġsear ched
To gether
Ġwas hed
Ġbath room
Ġpaw s
bb y
o nd
un n
an ged
Ġbo ard
f ic
kn own
Ġas king
Ġcra zy
Ġthank ful
Ġb itter
Ġsun f
y al
Ġp ir
ber ry
Ġ ind
al k
Ġdif fic
Ġro se
c il
Ġsw an
Ġbl oom
Ġun known
ĠE lla
Ġcover ed
Ġdiffic ult
Ġa dd
Ġpen cil
Ġfing er
Ġha m
Ġh oop
Ġj et
Ġw itch
Ġdr op
M e
Ġ '
Ġchick en
Ġgl oomy
a pped
Ġlo yal
al s
He re
Ġwe althy
c om
l ight
Ġun l
Ġcat s
Ġend ing
Ġg uit
b led
sh ine
Ġdo ve
Ġjoin ed
Ġc her
an ut
Ġmo v
Ġterri ble
Ġyour s
i ant
Ġ U
ĠR ex
Ġsal ad
ĠAnd y
Ġnut s
Ġr at
g round
Ġt iger
Ġpot ato
Ġm ask
x ible
se lves
Ġval ue
Ġch anged
Ġmo ving
Ġexc iting
orm ous
ĠM any
Ġbo dy
ĠT r
Ġto ast
Ġrec ord
er p
Ġz ip
Ġche ap
Ġdis g
Ġguit ar
irst y
Ġknow ing
Ġadvent ur
Ġyour self
Ġen ormous
Ġhair y
E very
Ġsho ot
ĠBr own
Ġbor ed
Ġpe pper
Ġrem ind
or y
l and
Ġac orn
Ġadventur ous
Ġsun shine
Ġsmall er
Ġst uff
Ġhat s
Ġsol ve
ĠJim my
Ġfle xible
Ġco st
rill iant
Ġkn ife
Ġperf orm
Ġsnack s
Ġnod s
Ġsh ore
Ġb rilliant
Ġth irsty
Ġdelic ate
Ġfr own
Ġdisg ust
Ġcoll ect
Ġst ri
Ġseed s
Ġcount ed
Ġas leep
Ġbanan a
re en
Ġmail box
in ess
Ġd ough
Ġtri ck
Ġneighb or
ung le
Ġhe al
l ive
Wh o
Ġst age
id ent
Ġmark et
Ġcu be
Ġst at
Ġj ungle
Ġsque e
mb re
Ġexplain ed
at es
Ġu mbre
Ġdisgust ing
J im
f ted
Ġla b
Ġjo lly
Ġfl ash
u nd
Ġfr idge
in al
p id
il t
Ġcr ane
c orn
Ġs uit
Ġr h
id dle
Ġsunf lower
Ġt imes
ĠA l
Ġcat erp
Ġcaterp ill
Ġrel ax
Ġsh iver
Ġf our
Ġis land
ig inal
Ġh arm
ic t
ĠWh ile
y ing
Ġstu pid
Ġmed ic
ĠIn stead
Ġcom b
Ġg oose
Ġc ro
ed ient
ĠW ill
Ġsto ve
I f
A re
Ġind epend
M um
m ost
Ġspr ing
Ġg em
Ġbat ter
Ġs ighed
Ġvegetable s
Ġst ones
p es
Ġsh ine
H ow
Ġmedic ine
Ġd epend
ĠYou r
Ġr ug
Ġcare less
Ġor iginal
Ġst amp
Ġg ar
Ġc ries
In side
g u
Ġcarrot s
Ġsc r
Ġsuccess ful
Ġsa uce
Ġje ep
Ġpop corn
Ġme al
Ġob edient
Ġal most
Ġm iddle
Ġmag n
Ġstu dy
Ġindepend ent
Ġfear ful
Ġj ack
m et
ink y
S orry
ĠSam my
Ġe scape
Ġcaterpill ar
Ġser ious
Ġpe anut
Ġbed room
Ġeag er
ak en
Ġget s
Ġpar rot
Ġstat ue
Ġhel met
Ġpe bb
Ġ No
Ġf ountain
Ġan g
Ġra ven
Ġpast a
Ġumbre lla
Ġcomp et
The re
Ġjack et
Ġbelong ed
Ġde st
Ġfil thy
Ġdes ign
Ġbor row
Ġc am
er able
Ġhouse s
Ġpri ze
Ġh ay
Ġbra ce
Ġstand ing
Ġmis erable
Ġr aced
Ġt aken
ag es
Ġfor k
Ġcray on
Ġpain ting
i o
Ġtri ang
Ġimpress ive
Ġch oose
Ġf ig
Ġt ied
ia ble
Ġspot ted
Ġli fted
Ġsl ipped
our s
Ġt ank
Ġthought ful
Ġdepend able
Ġste al
Ġgar age
en ny
Ġbu ilt
Ġmu sh
Ġ er
ip e
Ġmo le
Ġcraw led
Ġsc ale
Ġboat s
Ġp ant
Ġp ian
Ġham mer
Ġbott om
l ph
Ġcheer ful
Ġus ing
Ġsmo ke
Ġpick s
Ġmo der
Ġshow s
ber ries
r n
Ġpian o
Ġmagn et
d ile
co dile
Ġhurt s
in ary
Ġre f
Ġcra ck
Ġen g
Ġa unt
Ġmel on
Ġwa ff
Ġmoder n
Ġdo lph
unn el
c ream
p ack
Ġt unnel
o in
Ġar row
Ġrel iable
Ġho pping
Ġmush room
Ġj ug
Tim my
Ġsqu ash
Ġg um
Ġs ink
Ġmov ie
Ġt ax
Ġfl ute
Ġbe et
Ġle an
The ir
i v
Ġpop ular
ic op
icop ter
Ġcry st
Ġon es
Ġs il
Ġcompet it
Ġhel icopter
as er
Ġneed s
ip op
ll ipop
Ġcro codile
Ġli z
M olly
Ġp ress
Ġtrou bled
Ġpig e
Ġlo cked
Ġtri cks
Ġlo llipop
Ġplay ful
Ġhum ble
Ġtax i
Ġkiss ed
Ġl ow
a ppy
com fortable
am ond
Ġr id
Ġun comfortable
h ost
Ġwa nder
at ch
Ġang el
ed y
c les
Ġgra ce
Ġto rn
Ġan x
Ġwra pped
Ġmu ff
Ġtw ig
Ġpant s
Ġdisapp oin
ĠS n
Ġhelp s
Ġdi amond
Ġcam era
at ter
ot o
Ġanx ious
Ġg host
Ġte ars
Ġru ined
c ident
ĠJen ny
il ty
Ġqu ar
a ff
ĠE ven
Ġf is
op l
Ġbel t
er opl
Ġen v
Ġgu ilty
Ġb ull
Ġa eropl
Ġhelp less
Ġhapp iness
Ġliz ard
Ġboy s
c ut
ex t
Ġc ere
Ġwalk s
ce an
Ġpass ed
Ġme ant
Ġo cean
Ġfl uffy
Ġw ire
Ġn ail
Ġbrace let
Ġde af
z ed
Ġstret ch
Ġca ct
Ġcand le
t t
Ġbeet le
Ġm op
Ġharm less
ump et
Ġord inary
Ġansw ered
Ġc op
Ġcoll ar
Ġbe es
Ġt ire
Ġsh ape
Ġquar rel
Ġrad io
Ġflash light
Ġcryst al
Ġhard er
Ġpour ed
Ġtr umpet
Ġeng ine
M ama
Ġpers ist
Ġh unt
Ġto oth
Ġcere al
Ġinv ited
Ġcomp ut
Ġt ag
Ġoff ice
Ġm elt
Ġch arm
Ġsp ill
co a
Ġl it
Ġsco ot
Ġc omet
Ġtriang le
ie f
Ġm ug
Ġre p
u be
Ġyog urt
Ġsp end
Ġcomp ass
Ġac cident
Ġsh ade
he tt
ag hett
aghett i
Ġdisappoin ted
Ġli cked
Ġcact us
Ġpa le
Ġc ush
Ġfig ure
Ġreg ular
Ġgi ving
Ġav oc
Ġpr o
Ġshe et
Ġwhisp ered
az e
ut h
ell ig
Ġcre ate
Ġbar ber
Ġint ellig
Ġp ipe
Ġro de
Ġr oof
J ane
Ġth read
it her
Ġlo ad
Ġv i
Ġli br
Ġgif ted
c col
Ġpract iced
Ġdel ight
ccol i
Ġhar sh
Ġd ust
Ġp ow
as ses
ĠTr ue
Ġb icy
az z
Ġsp aghetti
Ġcompass ion
Ġsa iled
ur key
u bby
Ġfor ward
Ġpersist ent
Ġspe ed
Ġm itten
Ġco coa
Ġen vel
Ġquest ions
Ġcomput er
Ġc oo
Ġfeather s
h ip
Ġgl ove
g ing
Bob o
Ġri ce
Ġshr imp
Ġdes k
Ġst ream
Ġin se
Ġpige on
Ġcharm ing
Ġear s
Ġcar p
lc an
Ġra ft
Ġenv ious
Ġkn ot
Ġt urkey
Ġstrong er
om es
Ġco ins
Ġt ap
lcan o
we et
Ġtra p
umb ers
Ġaeropl ane
Ġtr unk
Ġwhe at
Ġbox es
Ġcarp et
Ġch ubby
Ġrest less
Ġintellig ent
Ġt ube
Ġsp un
Ġdream s
Ġfriends hip
ul if
ol in
Ġha lf
Ġcraw l
Ġloo p
Ġbro ccoli
Ġon ion
Ġdel iver
an ger
Ġac ce
Ġv ide
Ġvo lcano
ĠJ ake
Ġs le
Ġtra ck
Ġb ri
Ġca ulif
Ġv ine
y e
Ġtick et
Ġth ief
ess ie
cy cle
Ġloud er
Ġinse ct
Ġn umbers
as ing
Ġy aw
Ġhair cut
it al
Ġsleep ing
Ġm ill
Ġal ert
Ġe ventually
Ġexc ite
Ġpebb le
Ġho sp
Ġatt ract
Ġplan et
ĠTo day
Ġun iver
is ted
ul u
Ġhosp ital
Ġer aser
Ġreturn ed
Ġdest ro
Ġgrace ful
Ġhappen ing
ac he
ĠO K
ĠEm ily
Ġdec ide
Ġlearn ing
Ġsc reen
rew ork
Ġnice ly
Ġle op
Ġcaulif lower
Ġcompetit ive
Ġpo em
Ġcelebr ate
Ġc urt
Ġpe ach
Ġsold ier
Ġsa us
Ġpar ade
at ient
Ġattract ive
Ġcurt ain
Ġdolph in
Ġb ase
Ġvi olin
Ġway s
G o
at s
Ġtra vel
t en
Ġro d
Ġignor ant
ul b
Ġwheel s
Ġy ach
Ġsc atter
Ġd eter
Ġcompassion ate
Ġbar rel
Ġenvel ope
Ġbubb le
Ġl ying
Ġfi rework
Ġsor t
Ġquest ion
z zy
ĠP ipp
Ġscoot er
Ġdeter m
Ġr ag
Ġth u
Ġbicy cle
el ery
Ġneed le
ĠF r
Ġju dge
Ġb ulb
Ġleop ard
Ġte m
Ġyach t
Ġp ony
Ġcri cket
Ġh omes
Ġor der
Ġad or
ter n
Ġtr uth
Ġh ook
d om
Ġru bbed
et e
ig ator
Ġbus hes
Sara h
Ġun cle
Ġcush ion
Ġsp ell
Ġgr own
Ġcoo ked
Ġador able
Ġch alk
Ġso ar
Ġp urse
Ġsk in
Ġthem selves
Ġimp atient
Ġc elery
Ġtr ay
Ġshell s
Ġpen gu
Ġsn iff
Ġpr un
Ġwall s
Ġse al
Ġlive ly
Ġc ase
Ġall igator
Ġdist ant
Ġrad ish
Ġsay ing
Ġspe ak
Ġmotor cycle
Ġme at
Ġs end
ill a
Ġspin ning
Ġfor th
Ġcount ing
Ġent h
Ġboun ced
Ġch ain
Ġ ed
Ġclean ing
eb ra
Ġfil m
Ġsle pt
Ġp it
Ġsur f
Ġmar ry
us ia
Ġwall et
Ġenth usia
Ġmet al
ur b
eb ook
Ġb in
Ġwe ek
Ġnot ebook
Ġwip ed
Ġsk ip
is ion
ch air
Ġbig gest
Ġimp ro
Ġavoc ado
Ġbeh ave
Ġdestro y
v ator
Ġband age
Ġlaugh s
Ġste ak
Ġpat tern
ĠS h
Ġpo st
Ġele vator
ĠBu zz
us ie
Ġd ive
Ġsh ut
Ġsk ipped
Ġunl ock
Ġdi ary
de st
j ect
Ġz ebra
Ġbag s
at ing
Ġarm chair
ra ge
ag ed
Ġdist urb
Ġo y
Ġpo le
Ġshow ing
Ġgather ed
Ġcl ub
Ġn urse
b ul
Ġear th
Ġen c
Ġstr anger
Ġswe ater
Ġjelly fish
Ġsc rew
Ġtem p
ĠP oppy
Ġcom pl
Ġmix er
G ive
Ġsk ull
Ġl ime
Ġb ump
bul ance
Ġam bulance
n am
Ġf ather
Ġjourn al
G ra
Ġloud ly
it o
Ġfold er
Ġsh ield
ĠB et
ĠL ulu
Ġlibr ary
ĠP eter
Ġbutton s
Ġplay ground
Ġtruck s
Ġin k
Ġlight s
Ġt ummy
Ġpoin ting
Ġc ity
Ġdecor ate
Ġst ation
ir it
Ġpre p
Ġfall s
qu ito
ĠP olly
B illy
Ġf u
ĠF o
ent ion
n ger
ĠBird y
l ies
Ġher b
Ġor nam
Ġornam ent
Ġmo dest
Ġgu ard
Ġmo s
Ġknow s
Ġc ord
Ġpol ish
Ġmar ble
ob y
Ġmos quito
umb led
Ġsal t
Ġatt ic
Ġwhen ever
Ġve st
ct op
Ġres c
Ġy et
Ġp le
Ġdisapp eared
ce ed
Ġstraw berry
Ġon ce
ĠM um
Ġk ay
Ġbrother s
Ġit ch
Ġpir ate
Ġfoot ball
Ġspl it
ke le
kele ton
Ġh ipp
Ġa ut
Ġl ed
ur ing
ctop us
Ġdri ving
Ġc able
Ġsupp ort
Ġcall ing
Ġcup board
ak y
us hed
Ġwis hes
Ġcomp let
Ġtri pped
Ġro ot
Ġkay ak
Ġo ctopus
ob ile
Ġa dded
Ġed ge
Ġm ild
st ic
Ġdeterm ined
Ġsuc ceed
?" .
Ġread ing
Ġco al
om obile
W ell
Ġsun g
ut es
p ar
Ġsug gest
Ġst ack
Ġthu nder
Ġkind ness
Ġaut omobile
Ġcompl ain
Ġenthusia stic
Ġsnee ze
Ġcart oon
Ġyog a
ĠL ittle
Ġgr owl
ht ub
Ġfle a
Ġme adow
l a
Ġdraw er
Ġbat htub
Ġri bb
oph one
Ġmean s
Ġha ll
Ġgo lf
Ġs keleton
Ġm ath
Ġve il
Ġhunt er
Ġg or
Ġfl ame
Ġpo ke
Ġvide o
Ġche ss
Ġcup s
Ġtr oph
Ġglow ing
Ġmat t
Ġoy ster
w ork
Ġpen ny
Ġsp ear
l asses
Ġit self
Ġdraw ings
Ġhipp o
Ġrep air
Ġsw itch
Ġsung lasses
Ġtele ph
Ġcost ume
Ġd ess
Ġz ipp
, âĢĿ
Ġre pe
Ġmuff in
Ġar g
Ġpast ry
Ġp un
Ġroll ing
Ġmin utes
Ġpa cked
Ġmake up
ir on
ri c
ĠPe ople
Ġwaff le
c ase
Ġhand le
Ġpe ar
Ġm aze
Ġteleph one
Ġp ine
a it
Ġg ear
Ġhe dge
Ġmatt ress
Ġpack age
a ving
ĠM iss
Ġsho cked
in es
Ġtroph y
Ġpow der
Ġkn ight
Ġc ob
Ġmiss ile
Ġfr ame
Ġman aged
Ġenc ou
Ġw ife
Ġo k
Ġse par
Ġst airs
w eb
Ġr ot
Ġc amp
ur ch
r ophone
Ġmag az
Ġcol our
Ġstr ugg
Ġgra pes
t ime
Ġf ile
he ad
ĠT ina
Ġbasket ball
B ye
o ld
p er
Ġcob web
R e
Jim my
ĠT weet
S ee
Ġper m
Ġw ool
ĠD an
Ġmic rophone
es day
Ġey e
Ġle ash
Ġg asp
ie w
ke ep
Ġwe ep
Ġbark ing
at ure
Ġsaf ely
Ġte ar
Ġv iew
f fe
Ġslid es
Ġstep s
ist ol
ffe e
Ġbanan as
Ġst aff
Ġsp irit
Ġt ask
Ġgigg led
Ġho c
Ġhoc key
Ġve nd
Ġth ose
Ġgor illa
J ill
Ġcool er
ĠR ose
w as
Ġear ly
c ing
Ġmar ched
ro sc
Ġmin t
ĠL ook
was her
Ġfl our
Ġhot el
h ic
Ġsail or
Ġdess ert
Ġph oto
rosc ope
Ġve hic
il ot
Ġof ten
Ġch urch
ĠP ete
Ġcook ing
Ġrem ain
Ġf ive
Ġsaus age
ot ter
Ġt en
Ġtool s
Ġmed al
Ġe ither
Ġfire man
ch or
Ġgra ndpa
Ġ otter
Ġbase ball
Ġp istol
Ġpretend ing
Ġdish washer
Ġre ver
Ġorgan ize
Ġpe e
Ġvend or
Ġkn ock
Ġs ight
Ġg rill
Ġtemp le
Ġbatter y
Ġthin king
Ġopen s
Ġ ow
Ġreal ised
Ġ iron
Ġla ser
Ġsn e
Ġsand box
Ġo il
Ġpat ch
Ġh ours
Ġr ise
Ġwh ip
' d
ctor y
ĠG ive
Ġan chor
Ġtra sh
en se
Ġsh ort
n ey
ĠBet ty
Ġrh in
Ġfa ctory
se um
Ġm ay
Ġwar d
at ely
Ġcard board
ug ged
Ġlot ion
A l
Ġmess age
Ġval u
Ġward robe
Ġc ell
Ġmu seum
ap ers
Ġu r
in ation
Ġhang ing
uc et
ĠS unny
ail able
ĠZ oom
Ġh ive
e er
Ġtow ers
keep er
Ġblack board
Ġme m
l oo
Ġexcite ment
Ġco ffee
Ġp ilot
re ady
F luffy
Ġnap kin
Ġpengu in
r on
Ġche ck
Ġre ward
Ġqu it
ĠPipp in
Ġcan e
Ġpick ing
pl ace
ĠSn ow
az or
Ġ ig
Ġfa ucet
Ġpass port
ĠR ob
Ġst umbled
Ġdream ed
ĠB essie
Ġig loo
ar oo
ang aroo
Ġfree z
Ġju icy
Ġall owed
pl ay
Ġhold s
Ġal ready
Ġav ailable
Ġset t
Ġbat he
Ġtorn ado
im ney
Ġfing ers
ht ray
Ġha nger
Ġnew sp
Ġs ize
Ġla und
Ġl end
Ġch imney
Ġlaund ry
Ġo ak
Ġfis her
Ġk angaroo
Ġm en
ĠEvery where
Ġtell ing
E m
Ġno vel
bo dy
Ġm ummy
Ġp al
Ġmu le
Ġcher ries
Ġnot ice
Ġpract ice
Ġspill ed
Ġre ind
Ġcomplet e
Ġenjoy ing
Ġmic roscope
ar ian
amp oo
Ġg ain
Ġsu b
Ġfire place
Ġimag ine
and a
Ġdis play
oc er
ĠZ ip
Ġfast est
Ġmagaz ine
Ġhur ry
Ġcabin et
Ġshr ink
Ġas htray
W ait
Ġcow s
ĠSp ike
Jo e
g en
Ġpal ace
Ġimpro ve
ac hes
Ġr ake
Ġreind eer
Ġfall ing
ocer os
Ġsk irt
ur ed
Ġdiscover ed
Ġstar ed
Ġro ared
a id
Ġsil ver
Ġt ub
Ġtra il
I s
Ġmin er
c ome
Ġb ill
Ġf og
ict ion
Ġa x
st airs
ile t
Ġh ut
Ġhapp ier
Ġtall er
iction ary
Ġo ats
Ġfisher man
Ġob ject
Ġp or
v ision
Ġvalu able
Ġsh ampoo
Ġho les
Ġoff ered
Ġboot s
Ġrhin oceros
Ġnam es
Ġto ilet
Ġclimb ing
Ġbl in
v ice
O w
Ġstret ched
ie st
Ġzipp er
Ġlisten ing
Ġbath robe
Ġs ym
ale nd
Ġjewel ry
ĠHe re
Ġjoke s
Ġtele vision
Ġpro v
Ġc alend
Ġstop s
Ġax e
Ġjump s
Ġfu el
c u
Ġspark ly
Ġperf ume
ĠS usie
Ġbu ry
bo l
M ummy
l u
Ġpress ed
ĠK im
ree k
Ġre ce
f a
ĠT oby
Ġne at
Ġc reek
Ġpo pped
Ġop era
Ġcalend ar
Ġsn ap
Ġgasp ed
Ġatt ach
Ġsym bol
Ġt una
ĠM ar
Ġp apers
M r
Ġun pack
Ġres ist
Ġd ictionary
Ġsub way
Ġletter s
Ġfreez er
Ġcho se
Ġpin ch
z ag
Ġspo ke
Ġany way
Ġsu per
Ġpor ch
Ġhelp er
af fe
Ġbike s
Ġli e
ar ry
ic hes
Ġcom fort
Ġtight ly
Ġsh aking
Ġbook case
Ġs on
Ġr azor
aur ant
ĠA re
Ġsandw iches
ig zag
Ġwe igh
Ġagain st
Ġstick ers
Ġrest aurant
Ġnewsp aper
Ġbl ouse
Ġvehic le
Ġswing ing
Ġp ed
Ġdis ag
Ġn ature
Ġsquirrel s
iv al
Ġbelong s
Ġswam p
Ġbutterf lies
Ġg ym
d el
Ġinc lu
Ġgrow ing
Ġbuck le
om ed
Ġstir red
Ġmust ache
Ġbill board
x y
Ġbe ep
t e
Ġal arm
Ġfe st
Ġlight ning
Ġli p
Ġhun g
ut or
Ġdist ance
og n
Ġc ards
Ġob ser
Ġag ree
L ittle
Ġex t
Ġte ase
Ġrec ogn
Ġrub ber
i k
Ġhat e
f ast
e f
O uch
Ġdoes n
Ġmusic ian
Ġad vice
Ġbee f
Ġser ve
asp oon
Ġsweet ie
Ġmo del
l ter
Ġcri b
Ġblue berries
Ġso fa
Ġcir cles
Ġbreak fast
Ġt utor
as is
Ġbooks he
Ġgir affe
Ġfest ival
st ri
Ġsepar ate
Ġshe lter
Ġg as
Ġair port
Ġo live
Ġr ail
Ġbookshe lf
Ġfrog s
Ġte aspoon
Ġrever se
Ġj unk
Ġrid ing
Ġple ased
Ġdra in
ĠMr s
Ġwip e
Ġo asis
Ġso il
Ġa head
Ġresc ue
Ġle aving
um mer
Ġpain ter
Ġch ance
Ġsquee ze
Ġkn ob
Ġpo ked
ĠT eddy
Ġpee ked
Ġl umber
Ġtrain s
Ġext ra
Ġsl ipp
Ġqu iz
Ġre fused
re s
rm omet
Ġp age
Ġru les
Ġhappen s
Ġsound ed
Ġin s
Ġpoin t
Ġwin ter
Ġdanc er
ĠGra ndpa
Ġbird c
Ġdisapp ear
rmomet er
ĠDo lly
Ġwe ather
Ġwas te
Ġbirdc age
Ġli c
Ġthe ater
Ġre ef
Ġcarry ing
Ġinv ite
D aisy
if orm
Ġgo al
Ġo stri
Ġsw ung
Ġun iform
Ġtr ade
Ġcl iff
i ence
Ġlaw n
Ġlean ed
ĠP andy
ol a
ang u
Ġacce pt
Ġadm ire
Ġfor t
Ġaccident ally
Ġpast el
bb les
Ġst om
Ġl angu
Ġtw ir
Ġs uff
Ġp anda
Ġb et
r iger
riger ator
Ġpe ek
re nder
Ġblin ked
Ġstar ts
n a
Ġref rigerator
Ġany where
!" .
Ġimag ined
Ġdream ing
Ġrem ove
n ight
Ġshow er
ĠL ee
ĠC o
Ġce iling
Ġclass room
Ġcar ing
i um
Ġgra nd
Ġmiss ing
a ked
Ġlic ense
Ġst able
Ġmonkey s
Ġthe rmometer
ast ic
Ġwar ned
Ġs ummer
ĠW here
Ġab ove
Ġbri ck
ec ted
Ġc udd
Ġproblem s
am ber
Ġch asing
Ġlab el
Ġap ron
Ġs ent
Ġlaw y
urn it
urnit ure
Ġl id
ugg age
m ed
Ġrespect ful
Ġf urniture
Ġfrown ed
Ġzoom ed
Ġp ages
Ġpre vent
Ġb ent
Ġl uggage
Ġmistake s
Ġsun set
Ġostri ch
is on
Ġsuggest ed
Ġwindow s
l ow
ation s
Ġj ail
Ġw ine
Ġribb on
Ġold er
Ġshout s
Ġgra pe
ĠC l
Ġw igg
uc ture
Ġstr ucture
Ġspo il
e or
Ġfix ing
Ġch amber
Ġlion s
Ġdel ay
Ġfind s
Ġhand ed
Ġsearch ing
Ġun ite
D id
Ġf ought
Ġlawy er
Ġbright ly
Ġmeet ing
Ġpa ir
Ġcho ice
Ġsurpr ises
ĠE llie
Ġar t
ĠU n
C h
Ġfav our
eter in
eterin arian
ad ium
Ġst adium
Ġproud ly
ik i
Ġv eterinarian
v et
Ġchair s
ro d
Ġsl ip
ĠS pe
Ġsad ly
ĠB ow
Ġinc re
ĠC arl
Ġpudd les
Ġb erry
Ġint rod
Ġran ch
ve al
ĠB oun
Ġarg ue
Ġ V
Ġadm ired
Ġc ur
Ġfavour ite
You r
Ġin f
Ġexcited ly
Ġgrab s
Ġr ac
m end
Ġste am
th ank
Ġhum an
eor ge
s ity
ĠHe l
Ġpus hing
Ġsa ving
ĠR ed
Ġre veal
Ġy ield
om mend
all ey
ol og
Ġm all
Ġremind ed
Ġrec ommend
Ġle ak
Ġsur render
Ġhar b
Ġapp l
cu ss
a ul
Ġwe ap
Ġreg ret
Ġput ting
Ġv alley
Ġminer al
Ġeven ing
el come
Ġforg ave
Ġmat ches
Ġsnee zed
Ġa w
Ġpu p
Ġr ushed
ec ause
Ġsp ade
Ġap olog
Ġdis cuss
Ġpl ates
Ġprep are
Ġharb or
Ġign ore
ĠB ig
Ġcount ry
Ġlangu age
ĠBu zzy
Ġpull s
Ġpl astic
Ġsupp ly
Ġflo at
Ġsniff ed
ĠJ azz
Ġrepl ace
Ġme as
Ġsho vel
ĠB ill
Ġra ise
ĠN ext
Ġf re
Ġcar ed
Ġso cks
Ġstri p
Ġdoor s
Ġmyster y
Ġli ves
Ġrest ore
Ġstick er
Ġs udden
ar i
Ġkind s
Ġslipp ery
er o
ĠO w
Ġplay er
Ġpan ic
Ġhop ing
ric ane
id ay
Ġsh one
le x
her o
Ġbe g
ĠB inky
ĠM ike
Ġsuper hero
Ġdelight ed
Ġg ro
Y ay
au d
ch an
Ġchick ens
Ġshould er
Ġrain ed
Ġcolour ful
Ġbre at
ĠAl ice
Ġcla w
ĠBu bbles
Y uck
Ġsoft ly
r ise
Ġp ort
Gra ndma
Ġho l
Ġhol iday
ic er
Ġ âĢ
Ġbark s
as on
Ġthrow ing
Ġplan es
M ary
Ġbe nd
ĠFred dy
Ġshake s
Ġend ed
Ġinf ant
Ġshiver ing
Ġkne el
Ġsun rise
Ġpus hes
ĠO live
Ġthank s
Ġfre sh
Ġsuff er
Ġpoin ts
im ed
w ards
ĠP at
Ġt ip
ĠSpe edy
Ġfree ze
Ġkeep ing
ĠW ould
Ġgigg le
Ġco pper
Ġsmell s
Ġde ar
Ġent er
Ġprov ide
c ast
chan ic
Ġdis hes
ĠE nd
co nd
Ġun h
N ext
Ġappl aud
Ġhead s
Ġhur ricane
Ġcher ry
Ġm ass
Ġme owed
Ġmen u
Ġth umb
Ġse cond
Ġbright er
in ce
Ġsand cast
Ġme chanic
Ġw re
Ġspray ed
Ġlet ting
Ġe vent
Ġweap on
Ġlaug ht
Ġ x
Ġlaught er
Ġcla pping
Ġfeel ings
W ill
ick y
Ġsplas hing
em ent
ĠO r
ac ked
Ġcast les
ĠF l
c er
Ġsc ore
app ing
Ġuniver se
Ġn avy
Ġd em
Ġstick y
oph ie
Ġroom s
Ġr ow
Ġfl ies
ig i
ĠD ave
Ġunh appy
Ġgre edy
Ġd are
Ġal ive
Ġbreak s
Ġen er
Ġcou rage
Ġinv it
Re ady
Ġrepe at
Ġdem and
Ġtrust ed
L isa
Ġsome where
arl ie
Ġprun e
b les
Ġwre ck
Ġ Y
Ġsk ill
Ġexam ine
Ġpar ts
y ear
Ġeat en
o e
A ll
er c
en ry
Ġm ention
Ġrain ing
ĠHel p
B uddy
Ġthrow s
Ġjog ged
que st
Ġstar ting
Ġr ush
Ġpo ison
Ġpir ates
he art
Ġv ac
Ġcont ent
Em ma
ĠK iki
Ġs igh
Ġfl apped
Ġdrop s
Ġch irp
Ġsp ort
Q u
Ġspark led
ĠZ oomy
Ġgi ven
Ġstre ng
Ġste el
A nn
Ġbump ed
Ġyaw ned
Ġstu d
Ġre quest
Ġsco ld
Ġmy self
Ġstreng th
Ġshr ugged
M ark
Ġcoat s
Ġpun ish
Ġe qu
Ġsn ugg
Ġuniver sity
Ġpa id
ĠJohn ny
Ġpig s
Ġscr atch
Ġto e
Ġex erc
Ġtra cks
Ġup stairs
Ġpray ed
Ġcross ed
Ġsquee zed
Ġimpress ed
Ġfl ood
Ġboun cing
ĠR u
Al ice
Ġrabbit s
Ġbad ly
g es
. .
Ġle ather
Ġwar n
Ġex pect
Ġnew s
Ġt ide
ĠT ed
Ġmin ute
Ġbear s
Ġclaw s
Ġbu zz
Ġsweet heart
ĠS m
y th
Ġn ation
S h
yth m
Ġhis t
Ġvac ation
Ġhe at
Ġstraw berries
Ġobser ve
Ġexplor ed
Ġsett le
Ġsandcast le
Ġyaw n
Ġhist ory
ĠL illy
ĠL ola
m are
ĠM ummy
ĠS que
i ally
in king
Ġbelie ved
Ġhor ses
Dad dy
ĠH oppy
Ġche cked
ĠM andy
Ġnet work
Ġto ur
Ġchee k
ĠU nder
Ġoff er
Ġeas ily
Ġpl aced
s pec
Ġspot s
Ġsnow ball
we en
m en
Ġener gy
ĠB ee
Ġimag ination
Ġblue berry
Ġbet ween
ott en
spec ially
ĠG igi
iz es
Ġd aisy
Ġwa ving
ree ze
re at
Ġv room
Ġso ak
Ġrh ythm
Ġsaf ari
Ġmass age
Ġstom ach
Ġb aking
Ġnight mare
qu ake
Ġins isted
Ġblow ing
Ġent ered
Be fore
Ġst air
Ġp alm
Ġbeaut y
Ġtw isted
Ġb other
Ġwr iting
Ġprun es
Ġsc oop
Ġbra in
Ġ ing
ip ment
Ġpo ppy
Ġhill s
n oon
Ġafter noon
Ġe specially
Ġequ ipment
he st
Ġs ir
ĠS ee
Ġp ad
Ġing red
Ġcall s
ĠFo x
Ġingred ient
Ġearth quake
Ġignor ed
ĠSnow y
Ġburn ed
Ġno body
m ble
Ġst y
ap a
Ġse w
Ġt ug
is ty
Ġhear ts
xy gen
Ġle ar
Ġlear nt
Ġlemon ade
Ġincre ase
ill ie
J enny
Ġg az
Ġback pack
Ġmail man
Ġwhist led
Ġped al
ĠS k
F red
Ġshop keeper
ff ic
Ġperm it
Ġtre mble
Ġy ucky
ang es
Ġmove s
Ġintrod uce
Ġlem ons
Ġcra sh
Ġbean s
Ġflo ated
ed n
edn esday
itten s
W elcome
Ġplan ned
Ġstri ke
Ġtra ffic
Ġinclu de
Ġsl ap
ĠL ucky
Ġrac ing
res ses
Ġwis dom
Ġp ur
Ġwag s
ĠFin ny
la imed
ĠG eorge
Ġl uck
Ġfollow ing
Ġ Ċ
Ġpri ce
ec ting
Ġm ama
Ġp itch
Ġbel ow
ĠE lly
ĠH ave
L e
Ġwe ight
Ġexc laimed
h ouse
Ġbu ried
Ġcom f
Ġfollow s
Ġrecogn ize
Ġingredient s
Ġf urt
t ain
Ġcand les
M imi
Ġmar bles
ri age
und ay
em ember
er ation
ĠA lex
Ġap art
ĠW ednesday
Ġgrowl ed
uc t
ĠS u
ore s
Ġcon f
Ġteach ing
Ġhop es
Ġfold ed
Ġclose ly
ĠFin n
ĠWh o
Ġhe el
ĠS unday
Ġencou rage
ĠOw l
ĠP aul
Ġz igzag
Ġpull ing
Ġd igg
Ġboun cy
Ġfurt her
Ġchew ed
Ġdigg ing
Ġwin ning
W oof
W ith
Ġd resses
Ġim age
re c
c ery
Ġshout ing
Ġgro cery
Ġtw isty
Ġpeanut s
Ġpuzz les
bb ing
ĠD og
l ook
Ġscr at
Ġch ores
Ġwhisp er
ĠI s
Ġsp ike
ĠFr oggy
Ġc ape
Ġsn ail
Ġacorn s
Ġworm s
h ood
Ġdeep er
Ġur ge
if i
Ġexp er
ĠWhen ever
ĠSque aky
ĠT illy
ĠGra ce
Ġplan ted
Ġatt ention
ec ture
Ġexerc ise
ĠDan ny
Ġcu b
Ġop eration
Ġunder ground
Ġh on
Ġag re
Ġqu ite
Ġcreature s
Ġs imp
Every one
Ġstrugg le
or al
ĠM ittens
dd y
Ġbl ood
Ġl ecture
Ġwas hing
Ġhurt ing
Ġgif ts
Ġvan ished
Ġdress ed
Ġinvit ation
Ġsol ved
Ġli cks
Ġsnugg led
ĠSh aring
i ppy
Ġb le
Ġmar riage
Ġquiet ly
g ie
Ġwar ning
Ġj azz
Ġbreat he
rec i
Ġelephant s
Ġs izes
Ġd ried
Ġfall en
Ġland scape
or ies
Ġspr ink
Ġneighb our
Ġm ice
u esday
Ġapp reci
ĠS ophie
ĠJoe y
ĠâĢ ĵ
Ġeag erly
Ġsail ing
ĠCo co
Ġpa used
ip s
Ġcount er
ĠG ood
ĠBoun ce
ĠP enny
Ġwor th
look ing
ĠR ock
Ġo xygen
B ecause
Ġre lease
Ġshin ed
N ot
p ted
Ġre aches
Ġbal an
ĠZ ara
is ses
Ġo h
Ġk isses
Ġsty le
Ġbri cks
Ġplay s
Ġgl o
ĠT uesday
Ġide as
s ed
Ġin st
Ġw ob
Ġfirework s
B ella
igg ly
uc ked
Ġsee ing
Ġfl ap
op s
Ġacce pted
r ight
ĠP ip
To day
Ġbl ink
ĠR os
m m
Ġtre mb
The se
Ġmu ddy
Ġmem ory
Ġmar ried
Ġtomato es
Ġex it
ĠAnn ie
Ġwag ging
Ġfa sh
ĠCh arlie
R emy
Ġwander ed
un ately
ipp ing
Ġglo ves
Ġcap tain
Ġpillow s
Ġrece ive
Ġres p
ĠP inky
ra ged
Ġd uring
ĠEvery thing
et ch
Ġwe b
Ġpet als
Ġwater ed
ĠE ventually
Ġs i
i ved
Ġman age
Ġbr ings
Ġpin ched
Ġcake s
Ġvan ish
Ġfash ion
ĠBlue y
Ġprin ter
Ġdestroy ed
Ġtreasure s
n ce
Ġall ow
up s
Ġhad n
Ġwor se
ĠF ifi
S urpr
Ġve l
Ġhit s
Ġb ur
x u
Ġvel vet
Ġapp ear
Ġdisag ree
d o
Ġcatch ing
ĠR o
Ġscatter ed
Ġmem ories
Ġsor ts
ĠP apa
Ġher s
Ġscold ed
Ġpe ars
Ġor anges
Ġsign s
Ġb ones
Ġran g
Ġsn apped
Ġseat s
Ġsit s
Ġgaz ed
u xu
Ġra ised
B l
ĠMar ia
Ġz ipped
Ġp ies
Ġprin ts
Ġsh ot
Ġslid ing
ĠGo d
Ġfr o
Ġeas ier
Ġskill s
ss ible
Ġclimb s
Ġtwir led
c cer
Ġblanket s
Ġforg otten
Ġba ked
e ster
Y um
ester day
Ġdiffere nce
or ted
Ġl uxu
Ġgold en
is ing
ĠT w
Ġk itty
Ġcut ting
Ġse ason
ag gie
Ġcr ow
Ġnow here
a h
Ġso ccer
Ġd ared
Ġbit es
ĠH enry
ĠH arry
an ny
Ġl ung
Ġcelebr ated
ch oo
ch ie
Ġstra ight
Ġunl ocked
st ers
Ġsor ting
Ġcoll ected
Ġble ed
ap ed
Ġwelc omed
d ing
Ġvis ited
Ġspoon s
Ġour s
Ġst itch
Ġjog ging
Surpr ise
med i
Ġem er
ĠSp ark
medi ately
Ġis n
Ġto ng
Ġtra ve
Ġwin ner
um ble
Ġs ince
Ġru in
Ġpret t
O k
M oral
ĠT ony
Ġatt ached
Ġweep ing
Ġmarch ing
Ġluxu ry
Ġsimp le
ĠE ach
Ġshould n
Ġguess ed
Ġz ero
Ġcre ated
Ġstuff ed
Ġpet s
ct ion
Ġfam il
Ġwa ist
Ġur ged
Ġbow ed
Ġsell ing
Ġflo ating
r r
ĠSm ith
Ġby e
ĠK ing
Ġv ict
Ġking dom
Ġolive s
Ġkick ing
ĠW iggly
Ġpun ished
ĠL iz
ĠB aby
s it
Ġto es
Ġgr ant
Ġmus cles
ĠRos ie
Ġjewel s
Ġbed s
Ġmel ted
Good bye
Ġsl ice
Ġgr in
Ġunderstand ing
Ġcollect ion
Ġto re
Ġmeas ured
ak er
Ġcra s
Ġtra pped
omed ay
i ers
Ġl ined
' ve
Ġac ted
fort unately
Ġencou raged
v a
ĠS andy
Ġrece ived
ĠBe fore
Ġwaff les
ĠW ally
Ġwe st
Ġme ow
ent s
Ġpattern s
r in
in o
Ġbr us
e ath
Ġmouth s
k ins
Ġb ang
r ing
ĠK ate
Me ow
Ġpe aches
Ġb reeze
ad ed
un e
Ġprin ted
Ġsold iers
Ġs omeday
Ġpotato es
Ġpup il
um es
ĠM illie
Ġdrink s
Ġshe d
Ġexper ience
ĠT una
Ġpresent s
Ġfire f
ĠRu by
Ġsur round
Ġn one
os ed
Ġvoice s
e ep
Ġdr inking
ĠUn cle
is hing
Ġrelax ed
Ġvict ory
c us
Ġbre aking
Ġpaint s
Ġhur ried
e ve
iss ion
Ġtw ink
Ġtong ue
Ġcost umes
Ġfl at
Ġmention ed
Ġbeg ged
Ġte asing
Ġwhist ling
Ġf etch
Ġperm ission
Ġs ip
Ġdisag reed
Ġpe arl
ake s
Ġstr o
ve st
ĠThe se
Ġapp ro
Ġe sc
Ġsk ipping
Ġfis hing
ĠM ay
Le o
Ġhig hest
Ġp ra
Ġwat ches
Ġsor ted
Ġring ing
sh ip
Ġto night
ĠB o
Ġop in
Ġlet s
ic ing
Ġ Qu
Ġperfect ly
Ġshadow s
Ġim mediately
Ġherb s
Ġwarm th
Ġsp it
Ġremain ed
t her
ĠIt s
w alk
Bob by
irr ing
J en
Ġsne ak
Ġs ix
Ġlip s
Ġkneel ed
Bl ue
Ġcont est
ĠC he
ut ter
Ġcartoon s
Ġside walk
Ġcol ours
Ġstamp s
Ġag o
H a
ĠT oto
ĠB oo
ĠFo llow
Ġe ast
Ġhead ed
o ved
" ,
Ġstr ang
Ġf ed
Ġlady b
Ġsupp osed
Ġroot s
Ġli ck
Ġcr unch
Ġmix ing
Ġwork s
Ġdecor ations
Ġmelt ing
Ġkn own
Ġemer gen
M andy
ĠA b
Ġrest ed
Ġl ines
ĠSu zy
ĠJ ul
Ġl ily
Ġinst r
Ġla id
ĠG r
Ġcon es
Ġsucceed ed
Ġwigg le
et y
s ing
Ġsh ock
Ġset ting
ĠS low
Ġstud ied
Ġstrang ers
ĠRock y
Re ally
Ġtwig s
Ġbr id
Ġtheir s
ĠD r
Ġgirl s
b oo
Ġscream s
!" ,
Ġland s
Ġord ered
Ġmoment s
Ġst irring
Ġfield s
Ġal right
Ġsteal ing
d ed
And y
Ġr ul
Ġbrave ly
ĠB oth
av id
Ġm ister
! '
Ġin vest
Ġscrat ched
Ġplay time
Ġri pped
Ġinvest ig
Ġt ucked
Ġrest ing
Ġburn ing
is hes
ĠCl ara
ĠCh icky
Ġbrid ges
Ġoff icer
p lease
Sam my
B ird
ab ies
Ġsett led
Ġa chie
Ġmat ched
Ġte x
Ġtex ture
H appy
Ġturn ing
Ġwait s
ĠSk y
P eter
or ed
Ġtremb ling
ist en
Ġnail s
at ie
ĠSome one
Ġmuff ins
id s
Ġesc aped
ĠJ ames
Ġpile s
Ġinvestig ate
Ġbro om
os ity
Ġladyb ug
Ġso re
ĠPe pper
Ġadm ir
Ġappreci ate
Ġth reat
Ġb abies
Ġsil ence
Ġsister s
Ġemergen cy
Ġare a
Ġdad s
id es
Ġansw ers
Ġpu pp
Ġkey s
Ġchew ing
Ġsl apped
Ġw iz
Ġimport ance
Ġser ved
B oo
ĠH op
Ġsaf ety
iz ing
B u
W ould
Ġspark le
Ġtouch ing
ĠL ater
Ġso ared
ig ail
Ġs ings
Ġhe n
all en
E lla
b ers
ant ly
Mom o
ĠD ino
Ġamaz ement
Ġkeep s
Ġch allen
Ġhe sit
Ġtw in
Ġreveal ed
ache l
an na
Ġd ire
Ġit em
Ġso aked
z ing
Ġwr it
Ġfood s
Ġrid es
Ġdinosaur s
Ġrecord ed
Ġtick le
Ġin ch
ĠZ igzag
ĠM e
Ġwiz ard
Ġv et
Ġtrip s
ĠA n
Ġglow ed
ĠFr og
M mm
Ġh i
Ġbe amed
Ġqu ack
Ġcur led
Ġha ted
Ġw ink
Ġsho pping
Ġeat s
E ventually
ĠB ug
Ġpra ised
Ġwood en
Ġbring ing
Ġmitten s
Ġstudy ing
Ġgu y
Ġbrus hes
Ġspace ship
Ġg ust
Ġcraw ling
ĠSomet hing
C at
Ġrul er
Ġfl av
Ġdown stairs
Ġshoot ing
Ġtast es
Ġn apping
Ġsprink les
Ġmark s
Ġcudd led
Ġd ot
he llo
pl ash
Ġf ut
a les
a ved
Ġfut ure
Ġmon sters
Ġcoll ecting
Ġmeas uring
ĠH appy
Ġfamil ies
' .
ĠF irst
ĠO ut
ĠM o
Ġth rill
Ġo at
ir ts
Ġres ult
Ġappro ached
ĠR abbit
J ake
Ġcrunch y
a ct
U n
Ġrem em
Ġbleed ing
Ġremem bers
Ġbe at
Ġn icer
Ġsne aky
Ġdisturb ed
Ġlead er
Ġsc aring
O r
h ind
Ġpe el
ĠH ope
Ġfire men
ĠSt ar
Ġneighbor hood
Ġgre y
ĠN ot
Ġmot ion
Ġno on
Ġpo ssible
Em ily
S omet
Ġapolog ized
Ġwe ighed
ĠD id
u es
Ġticket s
C l
Ġnap s
Ġloo se
Ġpr ide
Ġyou th
Ġswim s
p ed
Ġstr ings
Ġrecogn ized
Ġsi ren
Ġpo king
f ied
ĠH o
c ious
h a
Ġtri cked
el vet
Ġwonder s
Ġgain ed
Ġwant ing
Ġcras hed
Ġo be
Ġsees aw
Ġwork er
unn ies
l s
om ing
Ġdraw s
Ġscoop ed
. '
Ġzoom ing
Ġopin ion
Ġyell ing
Ġprep ared
Ġgrin ned
ĠSlow ly
Ġa we
Ġdog gy
Ġpoem s
Ġact ing
ĠBe ep
Ġhapp iest
Ġche f
Ġsne aked
Ġresp ons
Ġe ff
ĠAl ways
ĠL izzy
Ġb unnies
Ġown ed
Ġany time
Ġstr uck
Ġped als
oy s
Ġkn elt
O llie
en a
Ġsecret s
Ġp ause
Ġdecor ated
Ġhorn s
Ġagre ement
ĠS qu
id ed
Ġfr ost
Ġtall est
Ġobe y
R emember
riend s
og o
ĠSt op
H ave
Ġdecid es
Ġ Once
Ġbeh aved
Ġt ugged
Ġs ides
Ġw oof
l ier
Ġsl im
z en
Ġgood night
Ġkeep er
Ġspark ling
Ġchirp ed
Ġpre cious
m other
i en
Ġrepe ated
T r
Ġclap s
Ġcont ain
aff es
ind y
Ġsnowball s
u d
r s
ĠR ay
Ġour selves
all ow
Ġgir affes
Ġbalan cing
Ġkind ly
Ġspend ing
Ġwrit es
ay s
pp ers
ĠL ike
om as
Ġpr op
Ġhis sed
F irst
Ġfro zen
Ġfrost ing
Ġeff ort
Ġbuzz ing
Ġstrugg led
o h
ĠSt eve
Ġadmir ing
Ġre le
ig gy
Ġsweet ies
ĠV elvet
Ġslim y
Ġbr ushed
Ġbloom ed
S usie
ĠA m
Ġpol ished
ĠZ oe
ar th
an ted
Ġcomf y
Ġb oo
Ġstay ing
Ġru bbing
D ucky
Ġpocket s
Ġrock ing
Ġthrill ed
Ġbe side
Ġcomp le
ĠA unt
ĠM aggie
A h
Ġe ight
Ġmach ines
is dom
ur ry
Ġear lier
Ġseem s
Ġy esterday
Ġr ust
ĠK eep
Ġtrave led
S p
Ġfold ing
Ġbo om
Ġcra cked
Ġhug ging
it ies
ĠSt itch
Ġrad ishes
Ġlo ving
Ġopen ing
Ġcir cus
Ġcuri osity
Ġsurround ed
ĠR achel
Ġspray ing
Ġdemand ed
Ġpaint ings
ĠG reen
am ie
Ġrem oved
Ġg aze
Ġhon k
Ġpebb les
Ġhard ly
Ġzoo keeper
Ġcat ches
ed ding
Ġst ing
Ġstri pes
Ġpow ers
Ġload ed
ĠPipp a
Somet imes
Ġpot s
Ġsplas hes
Ġpet ted
Ġmatch ing
ĠD avid
Thank s
Ġbe lly
Ġto ss
Ġst are
Y ummy
i bb
Ġwhat ever
Ġapolog ize
Ġcomf orted
Ġro cked
ĠB ree
Ġdec ision
Ġribb ons
ĠBird ie
ĠJ oy
er n
Ġstrugg ling
Ġdes er
Ġex pected
Ġste ep
w h
Ġprot ected
Ġneighb ors
Ġchase s
Ġsmile y
D uring
Ġgr anted
Ġcr umb
ĠM at
Ġpur red
Ġdi ving
Ġsad ness
Wh iskers
Ġorgan izing
low ers
Ġeag le
Ġhero es
Ġd ipped
Ġsun light
Ġli ed
Ġpastel s
ĠFr ank
Ġsaf er
E x
Ġroad s
Ġscr u
Ġarg ued
ĠM illy
ĠW ater
Ġgo als
Ġdisco very
ĠAb igail
Ġpe ered
Ġvill ag
R o
ĠBoun cy
u se
an a
Ġt im
l oe
Ġdrag ons
Ġbuild ings
Ġbucket s
Ġpart ies
Ġbe ard
Ġw edding
R ex
Ġfl utter
Ġplanet s
Ġan n
ĠRob by
Ġpol ishing
Ġfa sc
ir a
Ġrele ased
ĠCh r
Ġcrab s
ĠG ogo
ĠW atch
Ġtail s
Ġsaus ages
ĠJ u
Ġar gu
Ġbott les
Ġcont ro
Ġwigg led
Ġte ased
u ke
Ġargu ing
Ġsl ed
Ġdrag ged
ĠC ar
Ġpad d
Ġro aring
Ġcle aring
Ġsh irts
Ġmov ies
Ġgather ing
Ġair pl
Ġw id
joy ed
Ġteac hes
Ġspid ers
Ġl imes
ĠR emember
ĠD are
Ġover joyed
Ġact ually
Ġsigh s
Ġcontin ue
Ġcudd le
Ġso aring
Ġsmall est
ĠJ ess
Ġdri ves
Ġri p
Ġspark les
Ġcub es
Ġsit u
Ġref res
Ġtal ent
Ġchallen ge
ĠO lly
Ġgrand mother
ĠS plash
Ġpour ing
um m
Ġfasc in
Ġpretend s
Ġcut s
Ġquarrel ing
Ġb ank
Ġpe ppers
Ġshiver ed
Ġman e
Ġdust y
le y
Ġvillag ers
Ġwonder ing
Ġstretch ing
i b
n joy
Ġweek s
Ġdark er
Ġwhere ver
j am
T iny
s ses
Ġ X
Ġon wards
Ġr ings
ĠK atie
Ġun ited
A choo
Ġbe ad
ĠBe ing
ĠEvery day
Ġprett iest
John ny
Ġc aut
Ġreal ize
Ġcomp any
Ġpengu ins
anna h
L una
F r
ĠSp ring
Ġbed time
ĠW isdom
Ġcomple ted
ĠLe ave
Ġknight s
âĢĿ .
ĠJ e
Ġflag s
ĠB ecause
Ġplay room
ĠP rin
Ġact ions
ĠZ ero
Ġlearn s
Ġgot ten
Ġpat ience
ind a
d am
Ġshr ug
Ġkit es
Ġrespons ible
Ġfe ars
Ġdest ination
Ġrep ly
Ġwire s
Ġwr ist
Ġd am
aw s
Ġpack ing
Ġfa ult
Ġmountain s
Ġapplaud ed
Ġscru bbed
Ġm a
Ġcre pt
ĠA va
U h
ĠE arth
Ġsat is
Ġph ot
Ġth ird
Ġpencil s
Ġwin s
Ġstick ing
Ġb aker
Ġvisit ing
Ġw ound
Ġuse s
Ġpe as
Ġremind er
Ġcontro l
Gra ndpa
as hed
Ġjo king
Ġaw ake
Ġinstr uct
ĠP ut
Ġheal ed
Ġstar ing
Ġh itting
ĠF ish
Ġscream ing
Ġbeg in
R ob
uck ily
ĠF riends
ĠM oo
ic orn
Ġhelmet s
ent y
l er
Ġun icorn
se ek
Ġtowel s
S illy
ĠL ou
Ġch ips
Ġcre ation
ic a
Ġwas ted
b ie
M ar
ĠBe hind
la ire
Ġmask s
Ġforg i
Ġitem s
Ġfiref ight
Ġout do
Ġlollipop s
W atch
Ġhe av
Ġgun s
ĠH ippy
Ġd ied
Ġse as
Ġgl itter
udd les
Ġarri ve
Ġwere n
Ġsto le
Ġsc ales
Ġac com
Ġper ched
Ġachie ve
Ġlog s
Ġpract icing
d ie
in ing
Ġwho se
St ay
Ġpump kins
Ġinstruct ions
Ġsw oop
Ġbatter ies
Ġcand ies
Ġagre es
Ġpro ject
Ġsnake s
Ġchirp ing
Ben ny
Ġshe lves
Ġprot ecting
Ġpar ked
Ġex act
ĠC ra
Ġpatient ly
Ġact iv
Ġshould ers
Ġvide os
Ġblow s
Ġprom ises
F o
he e
Ġd ent
g o
us an
ue st
n ers
jam as
Ġexam ined
Ġairpl ane
D oggy
Ġro ses
Ġaccom pl
Ġtask s
D ave
ĠHo ot
P oppy
ĠB op
B unny
Ġbead s
Ġbowl s
Ġcrumb s
z es
Ġlisten s
ĠL ove
ĠBrown ie
ĠCat ty
P ete
ĠO l
Ġdolph ins
Ġb unch
Ġc ough
Ġg uest
c akes
Ġrequest ed
Ġrem ote
Ġimpro ved
Ġbra nd
Ġreach ing
ant a
ĠJ an
Ġal ien
ay la
ĠB ye
ir m
Ġcop y
ĠS un
Ġcheer ing
Ġphot os
ĠJul ie
ĠChe w
B ad
ĠBl ink
T ime
Ġcan s
ĠC uddles
Ġtim er
ĠB y
Ġrepl aced
Ġwork ers
ath y
Ġst ern
ĠE njoy
Ġne ither
ast er
M ike
Ġmis ses
Ġpass ing
Ġcurtain s
Ġconf l
Ch irpy
Ġrainbow s
Ġrub s
G eorge
uct antly
Ġroll s
Ġpat ted
Ġpa jamas
il o
Ġoutdo ors
es ome
d ies
Ġcomplain ing
ĠSqu irrel
L ola
R un
Ġpupp et
ĠPrin cess
Ġben eath
Ġclose s
Ġla p
Ġdrum s
Ġt une
ĠB eth
ĠM ouse
Ġfill ing
M iss
ang led
Ġref use
ĠS orry
Ġswe at
Ġfa ced
.. .
Ġse ven
Ġbalan ced
Ġresc ued
n eath
b l
Ġqu acked
ĠA bby
P aul
ist le
Ġaw esome
Ġ 1
Ġmiss ion
ĠHow ever
Ġguy s
Ġconfl ict
Ġcaut ious
Ġv ent
Ġc ause
Ġobser ved
Ġintrod uc
ĠTh omas
Ġpast ries
n ie
Ġ Ġ
ĠO ur
Ġdoctor s
Ġexact ly
Ġru le
Ġbec oming
Ġm es
Ġpolice man
Ġrocket s
u ly
Ġ Yes
y ou
ĠD ot
Ġfair ies
l ay
Ġp out
A n
Ġins ist
Ġbloom ing
Ġtra ctor
Ġfar ther
ĠS ad
av i
O ops
G reat
Ġremember ing
Ġinclu ded
Ġcur ly
F ine
Z oom
Ġteam work
z ie
Ġfascin ated
Ġsl am
Ġwob bled
Ġtr uly
Ġhelp ers
Ġsight s
Ġpad dle
Ġf irm
Ġst umble
H enry
ĠJ illy
Ġca used
ac ob
Ġpray er
Ġrecord ing
Ġsp ong
ke lly
a is
Ġstar fish
Ġtr aded
Ġsupp lies
Ġpoin ty
Ġth ro
Ġsitu ation
Ġinv iting
e ah
Ġevery day
g ers
Ġneighbour hood
Ġornament s
ĠA lly
Ġval ued
ink le
Ġadd ing
S ome
Ġrel uctantly
Ġdot s
Ġstay s
Ġtable s
Ġprett ier
Ġb are
Ġdes ert
Ġsnow men
Ġste ady
Ġminer als
ara way
Ġth orn
o dy
Ġa st
Ġf araway
Ġgl asses
ĠG et
ĠFo xy
ĠW elcome
Ġswoop ed
ĠTw o
ĠS ure
Ġun f
Ġfork s
Ġus ual
Ġus ually
P olly
Ġd ar
ĠJ amie
Ġwin ked
Ġsnee zing
Ġsol ut
Ġload ing
Ġspong e
ĠQu ick
Ġinsect s
Ġpan s
D og
Ġso bbed
ĠS anta
Ġgrowl ing
J ames
s m
Ġthro at
ar ter
ĠCh loe
Ġno ses
ĠJo sh
ĠD izzy
Ġconf ident
Ġscar ves
ĠW ant
Ġyour selves
ag ull
Ġhome work
ĠSt ay
Ġsuperhero es
Jo ey
Ġsm arter
Ġwind y
Ġlibr arian
T ina
ĠK ids
Ġgem s
D ays
or a
Ġunder neath
Ġkick s
Ġknow led
Ġitch y
Ġknowled ge
Ġjacket s
ĠF or
ĠS kelly
Ġsurf ace
Ġunt ie
Ġcom m
ĠD uck
Ġprince sses
.. ."
Th ose
H old
e ed
id o
Y eah
c oon
Ġsquare s
ĠH enny
Ġgigg ling
Ġwarn ings
Ġread s
i ar
v in
O ur
Ġch oo
s on
Ġyou nger
Ġclown s
ĠM ix
T oby
Ġro pes
Ġbit ing
Ġcrow d
ĠUn fortunately
D anny
p ite
Ġse agull
Tr ue
Ġpadd led
Ġwear s
Ġdeliver ed
ĠM on
Ġbuzz ed
Ġtwir l
Ġon ions
Ġcomplain ed
Ġb umpy
Ġst em
E w
Ġpig gy
Mr s
ĠAnn e
Ġdire ction
Ġdi ved
ou ch
Ro ar
Ġstart led
Ġt angled
ul ts
Ġlean ing
bb ie
ĠA nt
ĠJ ones
Ġbad ge
ĠP o
Gra ce
Ġun p
Ġde al
th ough
Ann ie
Ġv owed
Ġnap kins
an es
Ġtick led
Ġr isk
Ġcover s
Ġp ec
Sh h
Ġyell s
Ġsatis fied
in t
Ġknock s
Ġrefres hed
t uce
ĠS c
cu se
Ġc ous
Ġarrow s
M aggie
ĠWh istle
Ġwip es
P e
Ġspe aking
Ġlet tuce
Ġguess ing
Un fortunately
ĠQu ack
Ġri pe
ĠS usan
Ġchoice s
Ġhid es
ĠDo do
ĠRo ver
Ġsign ed
Bu zz
Ġslow er
Ġseek er
Ġintroduc ed
Ġcreat ing
Ġsing er
ĠMat t
Ġfro ze
Ġc ent
ugg les
Ġjo ked
Ġsque al
Ġexplore rs
Ġtoast er
f it
Ġav o
ang ing
S ophie
Ġpray ing
Ġwr itten
Ġdiscover ing
Ġprov ided
ĠD ara
Ġref le
ĠL ion
Ex cuse
ĠJe ff
Ġmushroom s
ĠP aws
Ġpay ing
Ġkne es
ence s
Ġhid er
Ġwander ing
ĠAs h
Ġimag es
Ch arlie
Ġst ung
ĠW ink
Ġmagnet s
Ġbare ly
Ġbeh aving
Ġtip to
Ġmar ked
?" ,
br ush
rr r
ĠD ee
Ġrest ored
Ġlead ing
ll ed
Ġch uck
ad os
Ġgre et
Ġn ine
T eddy
Ġbra very
Ġgear s
ĠSn uggles
Ġcompetit ion
k y
e al
Ġout fit
ol ine
Ġwis hing
Ġprop erly
Ġvent ured
a a
t le
Ġch at
Ġmus cle
Ġdance s
Ġpen s
Ġsal ty
am b
ĠBet sy
Ġran ger
ĠZ iggy
Ġdeser ve
Ġhow ever
se qu
Ġmatter s
Ġdark ness
Ġbur st
ĠF u
Ġrain y
Ġcobweb s
Ġchef s
Ġruin ing
Ġcon sequ
Ġblock ing
Ġb ak
ust ed
it ely
Ġsc ur
st y
Ġv ines
Ġfa b
ab el
Ġfab ric
Ġent ire
Ġbase ment
Ġperform ed
Ġle ast
ĠBug gy
S n
Ġscrat ches
Ġheav ier
ĠC laire
Ġmin ts
Ġavoc ados
Ġtwir ling
How ever
ĠL inda
r ink
f l
Ġscur ried
Ġlo sing
ĠJen na
Ġsunf lowers
Ġrain co
Ġsword s
T weet
Ġcl ick
ag ic
ĠL aser
Ġsil ent
Ġjob s
Ġnecklace s
Ġfl ames
ĠL uke
Ġrelie f
ĠGr umpy
Ġrot ting
Ġsew ed
Ġsn at
l en
Ġtrick y
L isten
Fo llow
J erry
Ġlight er
oph ia
Ġbow s
ĠSk ip
Ġex ha
Ġconsequ ences
Ġsolut ion
A lex
ĠL ena
Ġtire s
Ġst ain
Be ep
Ġunp acked
A b
Ġpart ic
Ġrace s
r ance
Ġbump s
Ġp ins
Ġwrap s
ais ies
Ġdecor ating
Ġw ow
Ġb acked
c her
Ġdent ist
Ġneed les
Ġcautious ly
Ġpur r
Ġlift ing
izz ie
ĠP r
Ġaccompl ish
Ġd aisies
Ġtriang les
Ġhesit ated
Ġann oy
ep t
ĠTh ose
Ġgrowl s
Ġcrack ers
o ke
Ġstom ped
Ġc ott
Ġgra bbing
Ġbo dies
Ġfig ured
Ġm ater
ĠT ree
Ġbuy ing
Ġmater ial
ĠF ido
ĠR olly
ĠA dam
Ġswan s
Ġt ies
Ġg ri
ver s
Ġgrow s
Ġ ĊĠ
Ġsweet s
ĠGood bye
Ġcheek s
Ġflav or
Ġown ers
ĠC athy
B ig
Ġsuffer ing
ĠJ essie
ĠE l
Ġfa ct
v room
Ġgroup s
b ly
Ġfore head
Ġlung s
Ġre pa
H arry
Ġinterest ed
Ġbak ery
ĠM ilo
Ġf reed
L illy
it ches
ĠNot hing
Ġchuck led
F or
Ġcon n
Ġsw ept
Ġthu d
? '
Ġexha usted
Ġt apped
T w
Ġtwink ling
R u
Ġne ct
Ġnect ar
ro sty
ell e
Ġfe ast
Ġdar ling
ind r
ĠM ad
Ġwor ries
Ġfu zzy
Ġtunnel s
Ġun s
Ġrepa ired
ĠTr ust
Ġre ason
ĠCo pper
ĠB all
Ġactiv ities
Ġpec ked
le ts
ĠH annah
Ġent rance
ĠT ry
ĠL isten
Ġra indr
Ġme als
Ġcomplet ely
Ġpartic ular
Ġma iled
ct ions
Ġnest s
Ġwait er
Ġcudd ly
Ġs ense
ĠN ana
Ġcolor ed
ark y
Ġle ap
st ep
b and
Ġpee king
Ġpl enty
Ġslam med
ĠC ara
n o
Ġplay ers
ĠB irthday
Ġmon th
Ġbu dge
Ġ Q
Ġsc ra
Ġforget s
Ġd en
Ġhand ful
ĠOl iver
Ġm er
o ssible
Ġgen ie
ĠChr ist
Ġst ool
igg ie
ĠP up
Ġtalk s
ĠSu zie
Ġfeed ing
Ġpassport s
Ġfilm s
Ġbath s
Ġimp ossible
Ġdeterm ination
M ay
Ġprin ting
Ġdesign ed
bo at
Ġbu ses
Ġo pp
ue en
Ġbar s
Ġsuit case
le phant
Ġcount s
Ġsto len
Ġspread ing
Ġspike s
ĠSn ap
Ġste er
Ġwip ing
Ġl amb
ĠR ain
Ġhon ked
et ty
W hee
n ies
Ġcow b
Ġsepar ated
bl ings
Ġsi blings
Ġhop s
Ġch op
Ġfire s
Ġsew ing
ĠTw inkle
Ġfe ver
Ġtwink le
Ġt y
Ġcamp ing
ĠM ira
Ġl ower
Ġch anging
Ġbeh avi
y es
ret ch
ĠBl oom
Ġli qu
Ġcelebr ation
m as
Ġsqueal ed
b ut
Ġdoll house
S unny
Ġback ward
Ġag e
Ġsnat ched
Ġc ash
h o
Ġtw ice
le e
Ġs way
it ched
Ġcelebr ating
ĠPe anut
Ġshr inking
Ġac he
Ġk ings
we ed
ri ous
Ġshop s
Ġkitten s
c ope
ĠJess ica
R ose
ĠJ acob
ĠG ina
au ra
Ġh us
Ġtouc hes
air y
Ġpan cakes
Ġavo id
Ġsp at
ĠF rosty
r ig
h og
ĠN ina
Ġpath s
ĠH old
ck y
ive s
Ġcalm ed
Ġr otten
Ġdro pping
S andy
ĠJ on
Ġsea weed
ĠM el
Ġtwist ing
P ipp
ile s
Ġstro ked
Ġunt ied
Ġplay house
ll en
M illie
n e
Ġpupp ies
Ġstud ents
ĠSo f
c l
h i
ĠR e
Ġast ron
Ġscrew s
Ġsome body
Ġliqu id
ig ning
Ġsqu ish
Ġwake s
am my
ĠW oof
Ġbrace lets
Ġastron aut
im mer
Ġthr own
are n
Ġloop s
ĠO ther
Ġpl ain
L uckily
Ġwra pping
Ġplan ning
Ġtr amp
Ġa imed
Ġsk unk
Ġpen nies
Ġsh oo
Ġlift s
Ġdanc ers
Ġfiref ly
Ġspark s
p en
D an
Ġpo ster
ĠChrist mas
Ġc ust
end y
y an
Ġreward ed
Ġobject s
Ġdire ctions
us ing
ing o
Ġrefle ction
Ġhus band
âĢ Ķ
T ake
ri ver
Ġcl ues
u ppy
Ġlead s
Ġincre ased
Ġbl ocked
Ġr ising
ĠY esterday
Ġdo d
Ġcous in
ĠWith out
Ġforget ting
rig ued
Ġcust om
K ate
u de
Ġtramp oline
Ġbegin ning
Ġstore keeper
Ġpout ed
Ġzebra s
Ġa ff
Ġhedge hog
Ġborrow ed
ĠâĢ ĺ
ĠRo llie
Ġsnow fl
Ġcountry side
J ump
Ġmes mer
ĠJ ay
Ġvehic les
Ġinstr um
ĠM ic
ĠK ayla
ĠU p
Ġfrown ing
P at
iv ity
U nder
Ġmark er
ĠQ ueen
Ġpres ses
Ġbe y
Ġbey ond
ĠOn ly
Ġdam age
Ġfar t
i very
ie ce
ĠB iggie
ĠT ara
j o
Ġheal th
Ġn ibb
Ġslip s
Ġwhisp ers
Ġswims uit
ĠJul ia
Ġfl apping
Ġwarm er
arm er
Ġtipto ed
Ġregret ted
Z ip
itt ed
Ġlay ing
ĠRob o
Ġy elp
ad es
ĠF ire
Ġevery body
Ġrain s
Ġgl ued
Ġcre ations
Ġhear ing
Ġcold er
Ġsw ir
iver sity
a el
Ġshap ed
ĠE lephant
Ġfin s
Ġstreet s
Ġrust y
Ġcush ions
O ut
Ġsa n
Ġfart hest
Ġcreat ivity
ĠMike y
Ġsa le
an s
Al ways
Ġstrong est
C o
Ġfit s
ibb it
ĠSpark y
Ġbell s
Ġdoll ars
ĠL arry
Ġe arn
ang le
Ġlend ing
ĠM oon
ĠCh irp
i am
ee se
Ġcash ier
Ġinclu ding
M illy
Ġrainco at
Ġsan k
Ġsniff s
ĠR ich
Ġsto pping
Ġtremb led
Ġsour ce
it i
ĠMiss y
im on
Ġwob bly
Ġind eed
ter s
Ġguest s
Ġsing le
Ġrecommend ed
Ġwe e
Ġspell s
Ġaccomplish ment
Ġbel ts
Ġsurpr ising
Ġend s
Ġhope ful
Ġseas ons
ĠT ake
ĠSnow man
ĠE ls
Ġplan s
B ear
Ġencou rag
ich ael
Ġsupp orted
Ġart ist
ill ed
Ġsuff ered
st ick
Ġperform ance
Ġslow ed
N ina
e et
Ġg ross
Ġflav ors
ert ain
Ġsp ins
id ing
ch o
Ġlabel s
Qu ack
Ġraindr ops
Ġdel ivery
ara c
u ing
Ġforgi ving
Ġrac coon
ob ody
ĠW oo
Ġpour s
t he
Ġturt les
Ġvan illa
il ity
Ġstand s
B ill
u ess
Ġbe am
Ġrec ipe
Ġt ying
ĠS w
Ġg eese
Ġwill ing
Ġdraw n
Ġrob ber
V room
Ġwe pt
ĠB ones
Ġch arac
Ġcorn ers
Ġpop s
ĠS ophia
Ġque ens
el ia
Ġd ie
Ġgri p
Ġsail boat
Ġdriver s
it ude
Ġm oo
Ġhall way
Ġimag ining
Ġsecond s
ĠFu zzy
M ine
Ġprep aring
Ġwid ened
Ġad ult
ĠSp irit
Ġgro cer
Ġc oop
Ġtalent ed
ĠBe aky
ĠP am
ĠI zzy
umm ies
Ġsail ors
ll ing
Ġso fter
Ġas ide
Ġwater ing
Ġknot s
Ġsend ing
Ġt ipped
Ġuns ure
Ġtree house
L ulu
Ġhor iz
ĠL izzie
Ġnot es
Ġe cho
Ġachie ved
ig ers
Ġhoriz on
Ġsque ak
Ġdeliver ing
Ġhot ter
Ġple asure
ĠSt ella
Ġpupil s
Cl ara
Ġbur row
Ġangel s
Ġcurious ly
Ġy um
E llie
Ġblin king
ĠJ une
Ġsymbol s
Ġd et
Ġtw eet
ĠSt retch
w k
Ġpass en
ĠC indy
ĠRu dy
Ġt ummies
Ġpige ons
Ġt iss
Ġfigure s
o ey
umb ling
Ġband ages
ĠRob ert
Ġc oup
ĠDo ctor
Ġrobot s
Ġtoss ed
al ph
Ġback wards
Ġh our
Ġro ars
B aby
Ġmer ma
Ġr ather
u zz
at ur
Mar ia
c ited
ĠCra b
ĠP lay
M oo
ight ing
Do lly
Ġgrocer ies
Ġzipp ing
P ut
V ery
Ġun w
p rin
Ġam ong
Ġbl own
Ġ icing
Ġafter wards
!âĢĿ .
Ġr umble
Ġscrew d
ipp er
us hing
Ġsp ed
Ġg lee
Ġpr ove
ĠT iti
ĠT ia
Ġd ip
Ġover come
Qu ick
Ru by
Ġsurf board
Ġshovel s
Ġslice s
ĠTo ot
Ġm erry
Ġm ate
Ġwob ble
ĠT urt
ĠA bbie
Ġhead ing
Ġdisturb ing
Ġrever sed
Ġfirefight ers
Ġsw all
J ul
Ġswall owed
Ġch ip
Ġfl ipped
ed s
Ġsc ored
ĠJ ump
Ġsquee zing
ust y
Fr ank
Ġwa king
S u
at y
Ġint rigued
S ad
Ġm aker
L ike
ĠB arky
Ġp uff
B etty
aw n
Ġha wk
Ġencourag ing
Ġa ud
ĠE x
Ġch os
Ġchos en
on ies
ĠR on
he w
ĠF armer
ĠA ng
Ġcoup le
Ġdesign s
Ġscrewd river
Ġslipp ing
ĠEm my
Ġsquish y
Ġgarden er
Ġcent er
Ġriver s
Ġresp ond
Ġmark ers
Ġjar s
ile y
Ġt igers
Ġfrown s
pec ting
ĠSad ly
Ġflutter ed
b ird
ĠK it
R ibbit
ĠS l
Ġfirefight er
ĠR yan
Ġsuit s
Ġsec ure
Ġsprink led
Ġcream y
Ġignor ing
Ġshark s
as hes
Ġbr u
Ġgigg les
Ġtiss ue
Ġtight er
Ġfirm ly
oun ce
ĠL aura
Ġsh own
f ly
Ġfamil iar
Ġthorn s
Sp ike
ĠW o
Ġdraw ers
ch ild
ĠZ ee
Ġexp ress
C ar
Ġde f
Ġcross ing
ment s
Ġd aring
Ġaud ience
Ġcolour ed
Ġcloud y
Ġperform ing
Ġc or
ĠN ick
Ġa is
a e
r at
Ġpedal ed
Ġmix ture
G et
Ġt il
Ġgrace fully
g gy
Ġhaircut s
Ġyield ed
Ġp onies
Ġdis ob
Ġcrown s
Ġbit s
Ġto dd
ĠS leep
Ġnervous ly
Ġhang ers
bb led
ĠP atch
Ġ 2
Ġpay s
Z oomy
Ġpe ck
Ġe v
Ġstro ke
f all
B ang
Ġres pected
Ġn apped
e en
a ven
Ġmind ed
dd ie
B essie
ab ly
Ġtest ed
B oys
ad ing
p arent
ĠChr is
ĠN ear
K im
ĠUn iversity
Ġbee h
ĠTurt le
Ġsurf ing
Ġneighb ours
ar row
ver ed
Ġsh ady
Ġd arl
Ġdarl ings
Ġmagic ian
Ġenthusia sm
ion a
Ġwis ely
Ġst itches
Ġsail s
D ear
ke nd
Ġwee kend
Ġthought s
Fred dy
ĠTweet ie
Ġremind s
Ġtemp er
or ing
Ġsurround ings
th a
Ġspit s
Ġfle as
ant ha
Ġteam s
Ġlesson s
Ġfill s
ĠAl ong
Ġfl ip
Ġmel ons
Ġpaint brush
Ġmerma id
K atie
on i
Ġgrand child
Ġexpl o
Ġel bow
Ġhoop s
Ġsport s
ĠF ighting
Ġli es
G uess
Ġpan icked
ra c
Ġam ount
Ġclean er
c used
Ġlong est
Ġscoot ers
Ġl ent
Ġs ill
immer ing
Ġbel oved
it a
Pipp in
Ġbeeh ive
Al right
og a
ll e
ong rat
Ġgrand parent
Ġoy sters
ongrat ul
Ġforgi ven
Ġmagaz ines
ĠW ise
Ġar r
Ġe lf
Ġrepe ating
Ġdiscuss ed
Ġsweet est
ĠThank s
K eep
Ġwa dd
ĠMay a
Ġre ass
Ġla ce
ĠGr anny
Ġnightmare s
Ġtub es
ĠW illy
Ġunderstand s
Ġspoon ful
Ġbat hing
ĠZ oey
Ġn ood
ast y
A m
Ġswe ep
Ġman ners
Ġspr ang
Un cle
Ġwr ink
Ġb ully
ĠH olly
Ġn ur
c row
Ġgu ide
ĠY et
an cy
Ġc rew
on na
rom ise
Ġbreat hed
J azz
wh ile
ent ly
step s
ild a
ĠB ally
Ġbulb s
Ġne are
Ġgrass y
Ġwigg ly
Ġtest ing
Ġsp ies
Ġc oug
Ġsol ving
Ġsheet s
ĠR oo
Ġfoot steps
nt il
After wards
Ġspeed ing
Ġfo cused
ce pt
oun ced
? !"
Ġmesmer ized
Ġbra ver
Ġcam el
Ġhesit ant
ĠSpark le
Ġlick ing
Ġr ushing
ĠW ell
Ġjoin ing
ĠP uppy
Ġpol ar
ĠMar tha
Ġgreet ed
es pite
- -
ĠBu bb
Ġch anges
Ġwor n
ĠN obody
K iki
Wh ich
Ġmaterial s
und red
Ġbicy cles
Ġstor ed
Ġm ast
Ġan ger
Le ave
Ġpeace fully
Ġship s
Ġsp ice
Ġterri fied
ĠSh ow
Ġn uzz
Ġg onna
Ġpol itely
Sn ow
Ġspill s
Ġscare crow
Ġkn ives
Ġev il
ĠMix y
Ġbury ing
pp ies
c a
Ġare n
Ġheal ing
Ġaeropl anes
Ġdon key
E ven
f reeze
Ġm iles
Ġscatter ing
Ġse als
ĠChew y
Ġd ump
am boo
Ġworry ing
B ee
z oom
D avid
be ep
ĠL enny
Ġpuzz led
Ġst acked
ĠK ip
ĠN ice
P enny
Ġlo ses
dd ing
Ġtrave lled
ĠW in
Ġbasket s
ĠO kay
Ġbl ast
Ġgaz ing
ip es
ĠT ess
Ġtemper ature
H urry
Ġbelie ving
Ġdri pping
Ġcl ue
Ġu nd
Ġtast ing
Ġpinch ing
Ġso aking
er m
Ġrat s
Ġ1 0
is c
Ġsand y
ĠIs n
re ct
ĠS imon
re y
an while
ĠAb i
Ġpunish ment
Ġban ged
B inky
Ġhuman s
Ġcras hing
ĠA na
Ġfor ce
Ġg est
Ġh undred
ĠL ia
Ġswim mer
ĠChe ss
Ġsnowfl akes
Ġrelax ing
Ġbeep ed
Ġres isted
ĠF airy
Ġquarrel ed
f orm
el ie
Ġr amp
ĠW endy
Ġjo ins
Ġbackpack s
ĠP h
ab by
Ġdelay ed
year s
Ġdress ing
Ġtodd ler
ĠL uckily
Ġfl ight
Ġcover ing
ĠT e
O pen
B y
Tw o
or ter
Ġencourage ment
Ġben ches
Ġscra ped
Ġtow ard
Ġfo cus
Ġpurp ose
ĠJu dy
B ow
Ġcor rect
Ġlip stick
' ."
Ġb amboo
Ġperm itted
Ġtwink led
S pe
ĠC ow
Ġmonth s
Ġpot ion
Ġlangu ages
Ġfreed om
Ġord ers
Ġrisk s
Ġm aster
T ony
Ġpo ppies
Ġnood les
sh m
Ġf aded
Ġwound s
K ids
ri er
shm allow
is ions
ĠJo jo
Ġcream s
Ġbird house
Ġcell s
Ġannoy ed
ĠHer b
op es
Ġad ults
Ġsniff ing
Ġche ers
Bird y
Ġunw ra
Ġflo ats
Bu zzy
Ġp uck
Ġopin ions
ec ca
and as
In stead
Ġfl own
Ġsc en
Ġsnee zes
Ġhands ome
Ġno dding
ĠM int
Ġsmell ing
Ġbur nt
Ġ 5
Ġdri fted
id er
Ġwith in
b age
Ġsc ient
Ġdam aged
Ġhe ight
Ġbother ing
Ġte aring
Ġple aded
Ġinstrum ents
Ġsl ither
Ġe ase
ĠAl i
Ġscient ist
B ack
d a
ĠMar ie
Good night
M ira
Ġp ound
Ġsell er
Ġhand ing
ĠS ay
Ġg erm
Ġwas ting
Ġfile s
Ġres ults
Ġdream t
ĠM abel
Ġbrus hing
Ġdestro ying
b ell
Ġexplain s
Ġcharac ters
ous y
Ġhis s
ĠR azor
ĠC r
Ġc ertain
ĠSt e
C arl
P andy
Ġsweat y
ĠH ug
Be hind
un ched
Ġbus iness
ĠRob bie
Ġon ward
Ġtal ents
Ġbrave st
Ġeng ines
T ry
ĠJan ie
Ġstern ly
ĠP en
it ion
Ġmosquito es
prin ts
Ġpost man
Ġmind s
c ake
Ġscare s
Ġt uck
u nder
Ġstom p
u rious
Ġapolog ised
u el
Ġman ag
Ġsn uck
Ġb itten
Ġdec isions
Ġtil ted
Ġsw itched
Ġremind ing
atter ed
Ġbehavi or
ĠPo or
Ġsing ers
Ġdes per
ĠJu dge
as hing
bb ers
Ġpeel ed
Ġsque aked
in ny
ĠEvery body
Ġy umm
Ġpur rs
ĠB ra
Ġtreat ed
ĠU ntil
Ġdisplay ed
Ġrust ling
Ġsm ashed
Ġmate y
Ġneat ly
Ġplant ing
ĠB ess
Ġmar shmallow
Ġin sp
Ġyelp ed
Ġcra cks
Ġgrandparent s
Ġbell ies
Ġs y
Ġsc amp
a ver
Ġshin es
ĠN avy
Ġh oo
Ġfa iled
Ġcolor ing
ĠY oga
Ġzoom s
ĠM ake
l ine
Ġbreat hing
r up
Ġn asty
Ġcomb ed
Ġdes pite
Ġp andas
Ġadd ress
Ġwater fall
ig hing
om p
uff in
c c
ĠAng el
ĠL oop
Ġant ic
Ġwid er
T illy
Ġro bbers
P lay
Ġecho ed
Ab igail
Ġsweat ers
Ġdoor way
ĠTo dd
e vin
Ġed ges
Ġin j
ĠSh adow
A unt
Ġdisob ey
Ġg ap
ĠBl inky
w ise
L iz
ĠM ichael
Ġt ar
ĠFl ick
W ake
Ġmagn if
or king
Ġtap ed
os cope
Ġflap s
f ather
Ġscold s
Ġact ion
ul p
Ġcrawl s
ĠM indy
Ġback s
Ġgo bbled
R os
ĠG ary
Ġsw ap
ĠE ddie
Ġwar ri
ĠFish y
Ġse ver
S low
Ġst eth
Ġprob ably
Ġshin ier
Ġnewsp apers
Ġsever al
Ġo cc
L ena
R ock
ĠMe g
Ġenc ount
Ġconn ected
Ġquiet er
Ġpl ucked
Ġser ving
ĠSh are
Ġ ouch
t ock
ig ger
Ġgest ure
A dam
T ed
Ġdoor bell
F l
T oo
Ġpl ot
Ġstud ent
Ġcare s
Ġsqu aw
Ġgrand son
Ġresc uing
f ire
ĠS e
Ġrow s
Ġsp y
Ġsimp ly
Ġg oo
Ġwhist les
i el
m ies
M agic
Sh rink
Ġsnap s
Ġastronaut s
v ant
Ġsh orter
ĠTim e
Ġunpack ing
Ġcott age
ss ss
Ġaccident s
Ġsw o
ib i
Ġm ood
Ġswo llen
ĠN ut
St eve
ĠM ousy
ĠZ ippy
ab elle
an ie
Z ara
Ġbother ed
H annah
Ġsteth oscope
f ound
Ġtrust ing
Ġca using
M ad
M at
Ġdress er
Ġleap t
Ġs ou
ain t
Ġprop er
Ġpill s
Ġthrough out
ret ty
O live
Ġrun ner
Ġpray ers
ĠD ina
Ġjoy ful
Th omas
m ates
Ġlo cks
ĠPr ince
Ġgoat s
J amie
wh at
Ġtar get
re st
ĠW ait
ĠK aren
ĠB ang
Ġde ars
art led
R ed
Ġfl ips
Ġm unch
Ġwadd led
ĠC ro
Ġlow ered
Ġste pping
ĠJack ie
Ġcon s
Ġteacher s
ĠT oys
Ġcowb oy
Ġenvel opes
Ġin ches
ĠV room
ear s
Ġch ar
Ġantic ip
Ġexplore r
ĠRe ady
ĠR uff
ĠR alph
Ġplay d
N ice
Fin n
un ity
ĠB ad
en ing
Ġeffort s
Ġfloor s
Ġknock ing
ĠP l
Ġuniform s
ĠT ri
l ied
Ġaw are
Ġfoot prints
Ġnear ly
Some one
ĠF iona
Ġdis c
ĠR ia
ll as
Ġgl itt
iv i
Ġappreci ation
Ġs ens
Ġtr ot
Ġwh imp
oo sh
Ġcoll ap
Ġche cks
Ġne cks
Ġex cept
Ġla pt
Ġch arge
ĠJack y
Ġpl ug
Ġflutter ing
Ġumbre llas
Ġstamp ed
ĠDave y
ac y
Ġsandcast les
Ġstat ues
ĠH oney
H oppy
om b
Ġshr ank
isc uit
ail s
ĠAm elia
r ily
Ġadd s
Ġfin ishing
Ġpri ck
r ons
Ġstro ll
Ġdod ged
Ġhunt ers
Ġchocol ates
Ġpassen gers
Ġgerm s
og er
Ġwr igg
Ġap rons
Ġais le
Ġset s
.' "
ĠG erry
Ġwe eds
Ġnovel s
ĠT aking
or der
Ġdemand ing
Ġscratch ing
Ġmeow s
D r
iss a
Ġnur ses
Ġmind ing
Ġdiscuss ing
L ucky
ur render
Ġk illed
Ġdrive way
ĠC ari
Ġbec omes
Ġlapt op
Ġtool box
Ġha ird
ĠEl iz
Ġpo sit
Ġatt ack
ĠD espite
ĠSad ie
Spe edy
Ġscamp ered
Ġbounce s
so l
Ġde ed
Ġspray s
ĠG l
Ġsupp lied
Ġtem pt
Ġburn s
Ġfriendship s
Ġsuggest ion
Ġsl apping
Co co
Ġclos ing
Ġinvit es
Ġanticip ation
Ġbelong ings
A rrr
Ġcott on
Ġspring ing
Ġfor m
Ġer ase
ĠSt an
Ġtwist s
Ġr ays
Ġforgive s
Ġsnugg le
Ġmodel s
Ġmass ages
Ġhum ming
Ġsh all
Ġrespond ed
Ġnew found
on nie
ĠShe lly
Ġex pecting
Ġghost s
Ġche ated
Do es
ĠWoo ly
G igi
Ġtravel ing
ĠN e
ott e
Ġbat tle
Ġal though
Ġco nd
Ġmom mies
allow een
Ġa im
Ġinvit ations
Ġcar ries
Ġrefres hing
Ġpresent ed
Ġcon c
Ġtw enty
Ġr owed
ĠB umpy
he l
ot s
Ġsqu ir
Ġcoop er
Ġfox es
ri e
arl otte
Ġfin al
Ġduck ling
ĠB ibi
Ġca fe
P ip
Ġmarshmallow s
ĠZ ipper
Ġcl icked
o or
Ġjet s
Ġdes igning
Ġbe aver
f ive
ĠH alloween
ĠM uffin
ĠWho ever
Ġmug s
ĠAl though
Ġdr own
Ġopp os
Ġpicnic s
ĠR uth
ĠEx cited
Ġtri cycle
Ġcon vin
ĠC le
i ens
ĠP op
Ġscoop s
p o
Ġc ongratul
ĠMad die
ĠâĢ Ķ
Sad ly
Ġtravel s
Ġal iens
Ġtest s
Ġquestion ed
ĠSpe ed
Ġstrip s
Ġcra ft
in ted
N ear
M ouse
at ty
co vered
Ġde fe
ĠFl utter
ĠBubb a
ir i
Ġfight s
B r
ro ken
Ġoppos ite
B all
ĠBig gy
F ind
E lly
ĠI m
H mm
Ch loe
Ġaff ord
Ġgrand father
Ġencount ered
ĠN ever
Ġr out
Ġdec l
in ch
Ġra ising
Ġup side
ĠV ivi
im ent
Me anwhile
Ġcalm ly
Ġfl ashed
J ess
ĠR ita
Ġreal izes
Ġsince re
Ġyaw ning
Ġb uddy
atur day
Tr ust
Ġcryst als
Ch oo
ĠSam antha
Ġcup cakes
Ġbuck led
B oth
Ġdef in
by es
Ġwin ners
ver se
r is
' ,
Ġca w
Ġweap ons
sh adow
ĠS aturday
Ġche at
Jo sh
Ġpack ages
Ġatt em
Ġmes ses
Ġsa cks
Ġgood byes
Ġco ach
Ġcon vers
ĠFl o
ĠTr uck
qu et
Ġdri ft
ĠM ina
ĠE va
Ġcap s
v al
Ġen em
Ġenem ies
Ġyumm iest
Ġscr ub
ash a
Ġreturn ing
Ġsw allow
ĠSof ty
Ġadmir ation
ĠMe gan
ri an
S ince
Ġspr out
ĠLou ise
ĠPlay ing
Ġun able
ĠAn other
ugg ing
Ġfreez ing
Ġbright est
ook s
Ġsad der
Ġb less
ĠY awn
Ġresp on
ĠM an
Ġco sy
re verse
ĠO h
Ġrespon se
Ġbr ide
Ġdiamond s
Ġhon king
Ġopp ort
Ġre app
st alk
Ġgar bage
Ġprevent ed
Ġstret ches
Ġwhisper ing
er k
ant astic
Ġo dd
Ġwho ever
Ġaw ful
ĠG ray
Ġaw oke
al th
Ġweigh s
Ġjourney s
B rrr
Ġspice s
Ġtrap s
Ġdragon fly
o ff
Ġb orn
Ġcl ip
Ġreass ured
Ġst all
Ġarg um
Ġbean stalk
iv ia
Ġdefin itely
Ġexam ining
Ġbeet les
Ġautomobile s
ĠM aisy
Ġvisit ors
H op
Ġstuff ing
m ine
Ġplayd ate
ic i
Ġwas hes
b roken
c ie
Ġwis er
Ġcustom er
em ma
ĠSof ia
ĠJo lly
ĠFl op
Ġtrave lling
up er
R achel
Ġb ou
Ġbou quet
Ġhaird ress
ĠN urse
, '
Ġt umbled
bb le
Ġdecor ation
Ġcamp fire
or se
ĠE lle
Ġbu d
Ġhonest y
v y
On ly
Ġb omb
eb ecca
Ġwelc oming
Ġoffer ing
ĠHe llo
Ġwe alth
Ġocc as
ĠJ ax
Ġincre asing
ĠO t
Ġtrou bles
Ġinsp ired
Ġloud est
Ġpar ted
Ġty pe
Ġgro an
ĠCh ick
ĠNut ty
ir ac
ĠTh under
ĠR icky
Ġwh ales
y l
Ġdecl ared
Ġcorrect ly
ook y
Ġbeak s
f us
ĠQuack y
y ler
Ġcle ared
ath an
Ġcowb oys
Ġnuzz led
ĠDot ty
Ġex ch
Ġpri zes
Fin ny
Ġwarm ly
ĠMiss ile
Ġobey ed
Ġre wards
Ġcustom ers
Sh ould
Ġcomfort ing
Ġsiren s
ĠF el
sh aped
Ġconn ect
ĠFl appy
ĠM agic
ĠB ingo
m atch
Ġtown s
elie ve
Ġre ly
ĠV icky
Ġf antastic
Ġown s
Ġtr igger
ĠF e
Ġinsist ing
Ġbend s
H oney
Ġspo iling
Ġhairdress er
Ġpo ses
Ġsurrender ed
Ġshare s
Ġsupport ing
Ġclean s
Ġp ipes
ren ch
ĠC ook
Ġwrink led
Jul ie
S un
Out side
Ġcho pped
Ġrec order
Ġbeam ing
Ġmo ons
Ġthan king
un es
Ġsnow y
ĠWo lf
B eth
ell ow
Ġenjoy able
Ġact ive
Ġexper ien
Ġsc urry
ĠP iggy
Ġc oral
ĠK evin
Ġenv iron
Ġdoll ar
Ġlo c
el ope
w orm
J e
Ġstream ers
ĠB ub
ud ged
ĠM other
ĠPat ty
ĠZ ack
Su zy
Ġex amp
ing er
Ġshoo ed
Ġshort s
Ġenviron ment
Ġ ill
T ree
Ġsc ent
Ġbru ises
ust er
Ġgr at
ĠL uc
B o
Ġhis ses
Ġsel f
Ġpl ugged
Ġsteer ing
ĠEls a
Ġwarri or
Ġexerc ises
Ġvisit s
sc reen
ir l
ĠA r
ĠR el
Ġdan gers
ap tain
Ġcudd les
ĠM in
Ġsqu ished
Ġs igning
Ġun fortunately
ĠL ight
be e
Ġdisappoin t
Ġpilot s
R ay
Ġapplaud ing
m unk
Ġgrat itude
ĠM oppy
Ġprov iding
Ġtick les
al f
ĠR ub
Ġt ing
Ġbad ger
G row
Ġju d
Ġstorm s
Ġconvin ced
Ġnight s
ĠEls ie
Ġyou n
Ġrespons ib
Ġchoo sing
ĠK elly
Ġneare st
Ġactiv ity
J oy
Ġyoun gest
Ġbra ins
Ġcoug hed
Ġexplo ded
A bby
Ġarr anged
Ġreward ing
C laire
ĠT re
ĠF ly
Ġbo nd
Ġsun screen
g ood
erp iece
Ġpe ep
p r
ĠFl oppy
ĠS weet
M on
ĠK aty
as ers
ĠJo an
ĠTweet y
ĠS al
il ities
Ġannoy ing
Ġsoap y
s n
me ow
S plash
Ġrail s
Ġlace s
Ġt apping
Ġoff ic
Ġappreci ated
ĠP ine
Ġthread s
ĠPh il
Ġheart broken
bo ards
ĠP ick
Ġemer ged
Ġwe ighing
Ġcongratul ated
D anger
Ġt in
ĠS il
Ġcrocodile s
Ġcl erk
Ġattem pt
Ġscr am
ĠN ancy
Ah oy
Ġsn ug
ĠK ay
w ater
Ġexamp le
Ġmess ed
Ġd ial
ĠA ny
Ġhook s
Mom ma
ĠJon ny
Ġchip munk
Ġtop s
Ġbat hed
Ġso ot
Ġguard ing
ĠT ippy
Ġmanag er
ort unately
ĠMic roscope
F riends
ĠD e
Snow y
ĠB aa
et ah
Ġmast erpiece
Ġer asers
Ġcomm on
Ġf et
ĠTom orrow
Ġtip s
Ġfin ishes
Ġme mb
Ġmemb ers
Ġnibb led
Ġdig s
Ġtrot ted
Ġkind er
Pe ople
Ġche etah
Ġparticular ly
Ġbl ond
Ġchew s
ir cle
Ġbe ast
Ġrip s
Ġargum ent
L izzy
at ive
ĠHelp ing
Ġfa ith
Ġearn ed
Ġforgiven ess
Ġobser ving
Ann e
ĠJo ke
ĠC ici
Ġcur l
Ġmis chie
Ġfis hes
Ġinst antly
Ġexperien ced
Ġche aper
ĠJ umpy
Ġgener osity
Ġc ages
Ġmischie vous
ĠTw ist
Ros ie
Ġfo am
G r
B aa
Ġmeow ing
ĠA g
C indy
Ġstore s
m ered
Ġgrand d
Ġmatter ed
etch up
Ġte les
Ġp asses
Ġl imp
S que
Ġsleep s
Ġbreath s
io let
Ġtr ans
Ġgasp s
end ing
Ġr in
ord inary
et tle
ĠFred die
Ġr umbling
G ot
Ġhat ch
ĠMom ma
Ġaccompl ished
ab ra
Ġgrass ho
o ver
ĠHo pper
Ġsmart est
Ġteles cope
Ġmat s
Ġstr um
ac ing
Ġth ump
Ġmo at
Ġwh ined
Ġscram bled
ĠI ce
Ġj ugg
G ina
Ġfarm ers
Ġdri p
Ġang rily
Ġcollap sed
Ġgarden s
ĠM ore
Rob bie
Ġsy rup
Ġexperience s
Ġsty les
Ġdiscover ies
ou raged
Ġforest s
Ġve gg
ide y
Ġto r
ho le
Ġmed als
Ġty pes
Ġf aint
ĠDo es
Ġmean ing
Ġcon qu
Ġotter s
Ġsn apping
ad abra
Ġhard est
p it
ac ock
Ġf if
er ing
Ġmove ments
Ġexpress ion
Ġch illy
Ġbubb ly
Ġsur v
Ġaff ect
P inky
Ġunf air
Ġvest s
Ġcour t
Ġscore s
Ġextra ordinary
When ever
Ġtooth brush
N ever
Ġatt itude
Ġblue bird
ĠMon key
Ġhor ri
Ġvi br
M o
Ġspear s
m el
ll s
Ġk etchup
ĠB erry
Ġsoon er
Ġgrassho pper
Ġbehavi our
M other
l o
Ġpat ches
Ġha bit
Ġaf ar
er ts
y d
ĠAsh ley
Ġpoke s
Ġmom ma
K aren
J acob
Ġth ie
ĠF riend
Ġsc ri
Ġthick er
Ġshr unk
Ġslither ed
Ġsquee zes
ĠF le
Ġ icky
Ġclass mates
ĠT erry
J on
Ġglitter ing
Ġprick ly
Ġexp ert
Ġto pp
Ġkneel ing
Ġann ounced
ĠR iri
ĠS uper
ell ing
Ġmark ing
Ġpe acock
Ġcost s
ct ric
ĠA choo
ĠC ally
Ġwater mel
Ġthie ves
Ġzigzag s
Ġh ood
Ġsk irts
Ġact s
Ġjump er
ĠA pp
ĠZ og
Ġwo lves
ĠCl oud
ĠSw im
Ġcon cer
Ġthumb s
P apa
Ġco coon
Ġsque aky
ĠBe cky
Ġbo ards
Ġwood cut
ĠEliz a
Ġser vant
Ġche ating
id ence
aff le
ĠJ ason
Ġr aking
Ġtr ading
b u
Ġexplain ing
J essie
c at
ĠE ric
Ġtid ied
ri ck
Ġb iscuit
Ġlunch time
ĠA c
Ġluck ily
Fr og
an ced
ĠP uffy
Ġspill ing
ĠD ay
Ġtrans form
ĠAn imal
ĠMad dy
F ire
ĠU se
Ġdess erts
ĠDan iel
ĠP ig
r or
ĠM ine
âĢ ¦
ĠSt ill
ĠG ill
Ġmess ages
r ough
ĠC aptain
Ġm irac
am ma
Ġbe ating
ĠG illy
Ġch ill
ĠT ammy
ĠL ung
id y
Ġwindows ill
o ot
Ġsee king
ĠL ina
Ġa ctor
ĠRain bow
ĠWill iam
ĠM ath
it s
s se
Ġfore shadow
A ny
pr il
ĠH i
w ar
ac les
Ġlean s
ĠSt ep
Blue y
ĠP inch
Ġde v
rac adabra
Ġcloth s
Ġhis sing
Ġfl ashing
ĠMon ster
ĠT iger
ĠFrank ie
B ounce
Ġwatermel on
F reeze
Ġwind ing
Ġdisc ouraged
Ġposit ive
Ġfun n
ĠW il
Ġfor ts
Ġcompet e
Ġdri pped
p op
Ġwoodcut ter
Ġpress ing
Ġtea pot
Ġdisagree ing
ick ing
Ġgl immering
Ġkangaroo s
Ġtrust s
Ġvegg ies
Ġtidy ing
ĠPe ep
Ġtemp ted
ĠFl ora
Ġland ing
Ġdo ck
Ġfor med
Ġsh allow
Ġover w
l ers
Ġr ack
Ġf ade
ĠTo oth
f lowers
Ġwor st
Ġele ctric
Ġcop s
Ġapolog y
el ing
Not hing
i ving
a i
ĠL ife
cream s
Ġsled s
ĠSil ver
Ġcomet s
Ġas s
up id
Ġsa v
Ow l
ĠJ elly
ĠSh ark
ĠM ag
Ġ 4
Ġconvers ation
Ġsitu ations
Ġoffic ers
B ug
Ġp apa
R ain
ĠR oger
ĠCh arlotte
Ġsun s
st orm
Ġd ing
ay e
Ġstructure s
Ġzip s
Ġoverw hel
Ġmill er
âĢĿ ,
ĠBut ter
Ġpizz as
Ġscurry ing
ĠH urry
Ġf oggy
Ġgrandd aughter
ĠAm ber
ĠOl ivia
ĠJane y
Z oe
Ġdeser ved
Ġweb s
ĠB uster
R abbit
Ġopport unity
ĠY ummy
Ġcub s
ĠS asha
ĠSp idey
ĠMix ie
Ġsn orted
ĠGo ld
Ġdifference s
Ġrhin o
Ġquack ing
ĠT ell
Ġhe aven
ĠBird s
if ully
F ifi
end ed
Ġle vers
Ġunl o
Ġinch worm
Ġin ter
Ġappro ach
ĠT yler
Ġcooper ate
ĠB oom
Ġseagull s
Ġpo sse
Ġposse ss
ĠRu fus
ĠFel ix
Ġpo se
rag on
s ers
?âĢĿ .
o f
wel come
Ġdisappoint ment
ĠSm oke
and ra
Ġsneak s
Ġbin oc
Ġspeak s
Ġbinoc ular
Ġart work
sn ap
Ġsurf ed
ĠSn ake
Ġanswer ing
Ġsc owl
Ġshort cut
ĠGra nd
Ġs ipped
Ġd ep
Ġrob in
Ġar rest
Cl imb
ĠIn ky
Ġribb it
Ġre un
Ġunwra pped
ss y
Ġam used
ĠAm anda
ug ar
Ġrepe ats
Ġappl ause
Ġpepper oni
ĠC ars
Ġkey hole
Ġcheck out
ĠM ae
Ġpuppet s
Ġvisit or
D eal
Ġstri king
Ġpadd ling
L ia
ĠC ircle
Ġcro aked
E at
Ġatt acked
Ġun z
ĠB rian
Ġsp ooky
ĠOt to
ors ie
ĠG us
E ach
Ġbeaut ifully
Ġgroan ed
ĠJe an
Ġcons ider
Ġcheck ing
cident s
Ġswimsuit s
g ar
ĠY ellow
u ses
j est
ĠSque ak
Ġg room
Ġwater s
ĠSl inky
Ġin vent
y le
Ġnet s
L uke
Ġexam s
Ġdry ing
et s
ot ion
ĠR ebecca
Ġshrug s
ag ine
Ġl ump
u dy
ĠAunt ie
art in
Ġshy ly
ĠS ince
Ġheel s
le st
Ġso bbing
Ġhonk s
Ġcheer fully
Ġshoot s
s ie
es ses
Ġch in
h ny
Ġsh h
il i
Ġhealth ier
Ġwhimp ered
Ġhang s
an ish
ic ious
ĠM us
M ilo
Ġcaterpill ars
Ġmagnif ying
Slow ly
ĠR atty
izz es
Ġf ries
Ġsqu inted
Ġbl amed
Ġfascin ating
ĠF ind
ch ing
Ġfrustr ation
Ġsc ulp
Ġsculp ture
ĠT ip
Ġsh immering
ou ched
ĠPen elope
ĠPe ace
Ġpo ss
Sh aring
Ġple as
Ġnumber ed
ed ic
Ġs uck
Ġnibb le
ĠW affle
am il
i bbles
Ġba a
Ġflow ing
ell ie
oth y
ĠO ff
hing s
Ġgr umbled
Pe pper
Ġra ked
th at
Ġbuild er
Bu bbles
Ġpet ting
e at
Ġgu ards
rac ted
Ġsway ing
Ġfa cing
ĠWoo lly
Ġsprink le
Ġdet ails
Ġmyster ies
ĠH ar
Ġfl ock
Ġsn ort
Ġen emy
ĠBo at
se y
Ġgood ies
ĠC urious
Ġtexture s
ĠB arry
Ġtable t
Ġw ig
Ġpo pping
Y esterday
Ġwild flowers
Ġmar ve
Ġcount ries
Ġcr ops
ĠGra cie
Ġfan s
Ġstack s
ĠJen n
Ġknob s
ĠSee ing
h ow
ĠTess a
Ġloc al
Ġbush y
Ġdrown ed
Ġbinocular s
Ġpeep ed
Ġhunt ing
Ġang rier
Ġbow ing
Ġste w
ĠBub u
Ġmap s
ĠM atch
Ġmoon light
Ġqu izzes
Ġn iece
ĠG low
ĠD eal
ĠJohn son
Ġoutfit s
Ġw rench
Ġmind ful
O O
Ġwh oosh
Ġcrow ded
Ġweak er
ĠBee f
cy cles
S qu
Ġend ings
Ġproper ty
Ġfl ashes
I m
Ġhesit ation
o ll
amil iar
Ġimagination s
Ġab ility
Ġun less
Ġfo nd
Ġbo il
Ġcar ts
ĠO xy
ĠAnd rew
get ic
ĠR ight
ĠAc cidents
Ġgl ared
Ġunf amiliar
Ġfold s
st and
Ġha ven
Ġmic row
Ġkn it
Ġspace s
th s
Ġdirt ier
s aw
T una
Ġresponsib ility
ĠP et
Ġdesk s
Ġp ouch
b ank
Ġmicrow ave
Ġcrack er
ib ly
B less
Ġd ate
Ġast on
Ġmem ber
ĠO xygen
Ġsw apped
rn ie
ĠR ing
ĠR avi
Ġwh ine
l t
Ġsoft ened
ĠPe ggy
Ġdoor step
Ġre bu
Ġdisappear ing
W ant
C ra
f ree
ĠB un
ĠHel en
Ġn atur
Ġquack s
ĠCh ip
ĠT oo
Ġwrit er
Ġlisten er
ĠF ix
sc ar
Ġpri v
Ġbl ushed
ĠSp icy
ven ir
Ġpalm s
Ġnot icing
Ġsou venir
re pe
ĠP ast
u pt
po ison
ĠT ra
repe at
Ġlaw s
ĠR es
Ġdis aster
ĠG abby
ent r
st r
Ġph ones
Rob by
end ant
re g
Ġconf idence
al a
A va
ĠCo al
ĠL i
ĠB ert
ĠC ut
Ġoverwhel med
Ġtim id
Ġstir s
Ġmay or
ing ly
Ġfl ick
Be ing
Ġt ugging
C he
ĠMo le
ĠP retty
gu ess
as mine
Ġmail ing
Ġsatis fa
Ġowl s
Ġunt angle
l or
Ġinj ured
ĠIm mediately
ĠWh ite
ĠB ooks
Ġsatisfa ction
Wh ose
Ġconc entr
ĠAnimal s
ĠMar ch
F ly
S c
Ġl im
ĠE at
m ers
M ittens
ĠN ora
ĠWo nder
th is
M abel
Ġpr ank
ĠB onnie
ĠK n
ĠTri angle
Ġhoo ves
ĠMel issa
ĠR un
ĠP ot
W iggly
Je ff
ĠSt artled
ĠCl ose
ĠCle an
Ġfix er
w ell
ĠS ir
Ġcl ut
Ġsn ar
ic ate
Ġsk ies
b ling
Ex cited
l ish
ĠTr ucky
Ġinstrum ent
Ġcap t
ĠH orsie
ĠF aye
ĠMat ilda
ad ually
Ġdisag re
Ġwrigg led
Ġpe cks
Ġcre ak
ik y
Ġrin se
Ġstain s
ĠSleep y
S usan
Ġbump ing
Ġsh ave
ĠS ing
ĠI cy
ĠCra bby
ĠHel i
Ġbend ing
ul f
Ġswir l
Ġr uff
Cl ose
Play ing
cess ary
Ġexplor ation
Ġchat ted
Ġsand pit
ĠSc issors
Ġle ver
Ġfact s
M ake
Ġrod s
S m
ĠC andy
Ġattach ing
Ġfool ed
Ġbur ger
ĠB ro
Ġglow s
Ġconcer ned
Ġclear ly
Ġcertain ly
Ġrever sing
Ġla va
Ġcomp an
May a
Ġsal on
Ġcir c
Ġfet ched
W ally
Ġmotor cycles
Ġsm elt
el s
Ġsomet ime
Ġt unes
Ġold est
Ġpro d
Ġtr oll
Ġfiref lies
R ing
Ġblond e
Ġkiss ing
Ġchallen ges
Ġwarm ed
K ayla
ĠBob bie
ĠL ots
Ġunlock ing
Ġdifferent ly
Ġb ound
Ġnatur al
D ino
Ġcup cake
Ġcut ter
er g
Ab racadabra
Ġriver bank
Ġconqu ered
urp le
T ara
s a
Ġru bb
Ġdet ect
Ġhat es
Ġall ey
ĠFl ap
s orry
Ġsend s
ĠFlop sy
Ġreal ise
Ġswir ls
ĠO pen
Ġm unched
Ġsens ation
Ġbang ing
Is n
Ġwigg ling
Jul ia
ĠC ammy
Ġtopp ings
Ġf ist
ĠRel iable
Ġcl ips
Ġhipp os
Ġst ings
Ġsway ed
Ġbr akes
Do ctor
Ġha lves
Ġmirac le
ĠGreen y
Ġro be
F ish
ĠP ink
Ġsurv ive
Ġostri ches
H ope
ĠCl imb
Ġtor to
keep ers
Ġother wise
Ġemb ra
ul a
Ġcr ushed
ber t
Ġbubb ling
M ichael
ĠLook ing
Ġtent s
ĠO f
an i
Ġrepair ing
Ġliz ards
ĠW orking
Ġstretch y
Ġvine gar
Ġrubb ish
ĠFlick er
Ġpassen ger
ĠE d
M any
ast e
Ġtorto ise
Ġp ounced
Ġvibr ant
ĠWh ich
Ġscen e
Su zie
ĠR h
ĠGr ump
Ġb as
g r
Ġgl ided
Ġdesper ately
Ġmoo ed
Ġcop ied
Ġma jest
ĠLight ning
Ġcalm er
Ġint ently
ĠSunday s
Ġp oop
Ġsn ip
ra p
Ġjud ges
Ġcoo lest
Ġj ing
ĠP er
Ġrag s
Ġjoy fully
Ġwo ken
Ġtw el
n et
Ġlecture s
sm elling
ĠJo dy
Ġgl ob
Ġh ips
Ġcous ins
Ġaston ished
is ible
ly n
ĠOut side
Ġcap es
ĠL u
Ġspeak er
Ew w
Ġarri ves
Ġsuccess fully
Ġinv isible
un o
Ġreun ited
Ġgu esses
Ġgoo ey
Ġbat s
wh y
Ġtwel ve
Ġchat ting
Ġcomput ers
ur ity
Mike y
Ġgood ness
ĠCarl a
Ġstack ing
nd ed
Ġsnowfl ake
m ie
Ġcomm un
Ġpound s
ist ory
Ġreapp eared
Ġdesper ate
Ġrac er
Ġcompan ion
Ġpark s
Z igzag
b ed
Ġd ou
Ġan k
O l
Ġluck iest
Ġle vel
ĠS ugar
Ġg all
Ġt ale
Ġstomach s
Ġsell s
Ġd umb
Ġcricket s
Ġdisobey ed
N ick
Ġg ates
ĠSte ven
Ġwind s
Ġs us
igg les
Ġdisagre ement
ĠW hee
Ġcr isp
Ġaw h
Ġawh ile
M ore
Ġpearl s
Ġho ses
it es
Ġso da
Ġpops ic
Ġloyal ty
ĠOr ange
L ou
L inda
Ġtong ues
ĠRos a
us ion
re nt
Ġrid er
ĠC D
O oh
ĠBl ack
Ġab o
p an
ĠAnn abelle
Ġsure ly
ĠL aw
d es
col ored
Ġbu nd
Ġoccas ion
Ġst un
d og
Ġguit ars
! âĢĻ
Ġchick s
r um
izz a
Ġabo ard
Ġintellig ence
Ġsepar ating
ĠR aven
ch ief
ĠI ron
Ġseas he
Ġrebu ild
Ġalligator s
ĠA pril
Ġcre ep
F ound
ĠV iolet
Ġcro ak
ĠW inky
Somet hing
ĠC are
Ġcaut ion
Ġc uc
aid s
C atch
Ġlearn er
ĠO ld
Ġr ins
Ġsp iky
Ġwh ines
Ġreveal ing
sol ut
ĠUn i
w orking
Ġtick ling
Ġesc ap
ĠS ettle
ĠRo ar
ĠB a
Ġcr ouched
Ġunder water
ĠC oby
Ġglob e
Ġappear ance
u dge
Ġ' '
Ġbloom s
ever se
!' .
Ġpr og
J an
ur ricane
Ġstroke s
Ġhat ched
Ġle aking
f ived
st op
if er
Ġguard ian
ĠSo cky
se ph
Ġzoo keepers
eal ing
arn ing
Ġrout ine
Ġpersist ence
Ġt ant
Ġdo ves
Ġadm it
Ġqu ilt
Ġlight ing
Ch icky
Ġtap s
Sn ap
Ġsqu ashes
Ġbl ame
Ġpain ful
S leep
Ġdeep ly
Ġsh attered
Ġtempt ing
T oys
Ah h
Ġmo ld
Ġri pp
ĠP uff
Ġsquir ted
Mat t
Ġthr one
Ġsec urity
R alph
Ġelectric ity
ĠSp in
Ġbur gers
Ġcent re
Th ree
Ġpeek s
gg les
Ġallow ing
Ġcook s
Ġreal izing
c on
ĠL iam
em on
ort h
Jess ica
Ġexch ange
Ġcho pping
ck er
us hes
Ġl ar
Sh are
ĠQuick ly
S ophia
ĠR ace
Ġsweet ly
ĠA lf
Ġrins ed
Ġglitt ered
o ss
ver ing
Ġsweet er
is app
Ġener getic
Ġdefe ated
Ġmel ody
Ġmelt s
Ġbuild ers
Ġfu rious
S w
Ġgo ggles
Z ero
ĠIn ch
Ġwa ded
ĠCat s
ĠOther wise
Ġsniff led
ĠC omet
as y
Ġchoo ses
Ġtant rum
ĠG iant
Ġcontain er
Ġcompet ing
b ang
ere my
ĠSh arp
ĠM ila
ar ted
Ġserious ly
ĠP ark
Ġprotect ion
Ġh udd
Ġattempt s
Ġlar ger
Ġl ull
ĠR ara
Ġund one
ĠD uke
Ġbuck les
Ġcl uck
L izzie
Sh oo
Ġhelicopter s
Ġcoo ed
ĠC her
Ġtoss ing
ĠWh ale
ĠPinch y
S weet
ĠT ears
ĠSm o
ĠO ver
Ġhum med
Ġcourage ous
St ill
ĠD in
ĠM a
ĠH or
Ġd edic
solut ely
Sque aky
Ġal oud
Ġmu ster
Mad dy
Every thing
Ġgo d
Ġdeser ves
C urious
ĠT hings
Ġrac ers
Ġpatient s
ĠD ragon
ap s
U se
ĠSque e
Ġmar vel
Ġmeet s
ĠLiz a
Ġtour s
ĠJ et
ĠR usty
ĠH ops
Fr oggy
Ġwra pper
ĠCr usty
ĠR eddy
Ġbo oth
Ġwh iskers
Ġimpro ving
Ġnice st
ĠL and
Ġmeadow s
Ġbo ld
Rock y
S urrender
Ġimag inary
